unsigned char model_tflite[] = {
  0x1c, 0x00, 0x00, 0x00, 0x54, 0x46, 0x4c, 0x33, 0x00, 0x00, 0x12, 0x00,
  0x1c, 0x00, 0x04, 0x00, 0x08, 0x00, 0x0c, 0x00, 0x10, 0x00, 0x14, 0x00,
  0x00, 0x00, 0x18, 0x00, 0x12, 0x00, 0x00, 0x00, 0x03, 0x00, 0x00, 0x00,
  0xc4, 0x35, 0x01, 0x00, 0x08, 0x1c, 0x00, 0x00, 0xf0, 0x1b, 0x00, 0x00,
  0x34, 0x00, 0x00, 0x00, 0x04, 0x00, 0x00, 0x00, 0x01, 0x00, 0x00, 0x00,
  0x04, 0x00, 0x00, 0x00, 0xa4, 0xca, 0xfe, 0xff, 0x08, 0x00, 0x00, 0x00,
  0x67, 0x02, 0x00, 0x00, 0x13, 0x00, 0x00, 0x00, 0x6d, 0x69, 0x6e, 0x5f,
  0x72, 0x75, 0x6e, 0x74, 0x69, 0x6d, 0x65, 0x5f, 0x76, 0x65, 0x72, 0x73,
  0x69, 0x6f, 0x6e, 0x00, 0x68, 0x02, 0x00, 0x00, 0xb0, 0x1b, 0x00, 0x00,
  0xa0, 0x17, 0x00, 0x00, 0x50, 0x17, 0x00, 0x00, 0xe0, 0x16, 0x00, 0x00,
  0xd8, 0x16, 0x00, 0x00, 0xd0, 0x16, 0x00, 0x00, 0xc8, 0x16, 0x00, 0x00,
  0xc0, 0x16, 0x00, 0x00, 0xb8, 0x16, 0x00, 0x00, 0xb0, 0x16, 0x00, 0x00,
  0xa8, 0x16, 0x00, 0x00, 0xa0, 0x16, 0x00, 0x00, 0x98, 0x16, 0x00, 0x00,
  0x90, 0x16, 0x00, 0x00, 0x88, 0x16, 0x00, 0x00, 0x80, 0x16, 0x00, 0x00,
  0x78, 0x16, 0x00, 0x00, 0x70, 0x16, 0x00, 0x00, 0x68, 0x16, 0x00, 0x00,
  0x60, 0x16, 0x00, 0x00, 0x58, 0x16, 0x00, 0x00, 0x50, 0x16, 0x00, 0x00,
  0x48, 0x16, 0x00, 0x00, 0x40, 0x16, 0x00, 0x00, 0x38, 0x16, 0x00, 0x00,
  0x30, 0x16, 0x00, 0x00, 0x28, 0x16, 0x00, 0x00, 0x20, 0x16, 0x00, 0x00,
  0x18, 0x16, 0x00, 0x00, 0x10, 0x16, 0x00, 0x00, 0x08, 0x16, 0x00, 0x00,
  0x00, 0x16, 0x00, 0x00, 0xf8, 0x15, 0x00, 0x00, 0xf0, 0x15, 0x00, 0x00,
  0xe8, 0x15, 0x00, 0x00, 0xe0, 0x15, 0x00, 0x00, 0xd8, 0x15, 0x00, 0x00,
  0xd0, 0x15, 0x00, 0x00, 0xc8, 0x15, 0x00, 0x00, 0xc0, 0x15, 0x00, 0x00,
  0xb8, 0x15, 0x00, 0x00, 0xb0, 0x15, 0x00, 0x00, 0xa8, 0x15, 0x00, 0x00,
  0xa0, 0x15, 0x00, 0x00, 0x98, 0x15, 0x00, 0x00, 0x90, 0x15, 0x00, 0x00,
  0x88, 0x15, 0x00, 0x00, 0x80, 0x15, 0x00, 0x00, 0x78, 0x15, 0x00, 0x00,
  0x70, 0x15, 0x00, 0x00, 0x68, 0x15, 0x00, 0x00, 0x60, 0x15, 0x00, 0x00,
  0x58, 0x15, 0x00, 0x00, 0x50, 0x15, 0x00, 0x00, 0x48, 0x15, 0x00, 0x00,
  0x40, 0x15, 0x00, 0x00, 0x38, 0x15, 0x00, 0x00, 0x30, 0x15, 0x00, 0x00,
  0x28, 0x15, 0x00, 0x00, 0x20, 0x15, 0x00, 0x00, 0x18, 0x15, 0x00, 0x00,
  0x10, 0x15, 0x00, 0x00, 0x08, 0x15, 0x00, 0x00, 0x00, 0x15, 0x00, 0x00,
  0xf8, 0x14, 0x00, 0x00, 0xf0, 0x14, 0x00, 0x00, 0xe8, 0x14, 0x00, 0x00,
  0xe0, 0x14, 0x00, 0x00, 0xd8, 0x14, 0x00, 0x00, 0xd0, 0x14, 0x00, 0x00,
  0xc8, 0x14, 0x00, 0x00, 0xc0, 0x14, 0x00, 0x00, 0xb8, 0x14, 0x00, 0x00,
  0xb0, 0x14, 0x00, 0x00, 0xa8, 0x14, 0x00, 0x00, 0xa0, 0x14, 0x00, 0x00,
  0x98, 0x14, 0x00, 0x00, 0x90, 0x14, 0x00, 0x00, 0x88, 0x14, 0x00, 0x00,
  0x80, 0x14, 0x00, 0x00, 0x78, 0x14, 0x00, 0x00, 0x70, 0x14, 0x00, 0x00,
  0x68, 0x14, 0x00, 0x00, 0x60, 0x14, 0x00, 0x00, 0x58, 0x14, 0x00, 0x00,
  0x50, 0x14, 0x00, 0x00, 0x48, 0x14, 0x00, 0x00, 0x40, 0x14, 0x00, 0x00,
  0x38, 0x14, 0x00, 0x00, 0x30, 0x14, 0x00, 0x00, 0x28, 0x14, 0x00, 0x00,
  0x20, 0x14, 0x00, 0x00, 0x18, 0x14, 0x00, 0x00, 0x10, 0x14, 0x00, 0x00,
  0x08, 0x14, 0x00, 0x00, 0x00, 0x14, 0x00, 0x00, 0xf8, 0x13, 0x00, 0x00,
  0xf0, 0x13, 0x00, 0x00, 0xe8, 0x13, 0x00, 0x00, 0xe0, 0x13, 0x00, 0x00,
  0xd8, 0x13, 0x00, 0x00, 0xd0, 0x13, 0x00, 0x00, 0xc8, 0x13, 0x00, 0x00,
  0xc0, 0x13, 0x00, 0x00, 0xb8, 0x13, 0x00, 0x00, 0xb0, 0x13, 0x00, 0x00,
  0xa8, 0x13, 0x00, 0x00, 0xa0, 0x13, 0x00, 0x00, 0x98, 0x13, 0x00, 0x00,
  0x90, 0x13, 0x00, 0x00, 0x88, 0x13, 0x00, 0x00, 0x80, 0x13, 0x00, 0x00,
  0x78, 0x13, 0x00, 0x00, 0x70, 0x13, 0x00, 0x00, 0x68, 0x13, 0x00, 0x00,
  0x60, 0x13, 0x00, 0x00, 0x58, 0x13, 0x00, 0x00, 0x50, 0x13, 0x00, 0x00,
  0x48, 0x13, 0x00, 0x00, 0x40, 0x13, 0x00, 0x00, 0x38, 0x13, 0x00, 0x00,
  0x30, 0x13, 0x00, 0x00, 0x28, 0x13, 0x00, 0x00, 0x20, 0x13, 0x00, 0x00,
  0x18, 0x13, 0x00, 0x00, 0xf8, 0x12, 0x00, 0x00, 0xf0, 0x12, 0x00, 0x00,
  0xe8, 0x12, 0x00, 0x00, 0xe0, 0x12, 0x00, 0x00, 0xd8, 0x12, 0x00, 0x00,
  0xd0, 0x12, 0x00, 0x00, 0xc8, 0x12, 0x00, 0x00, 0xc0, 0x12, 0x00, 0x00,
  0xb8, 0x12, 0x00, 0x00, 0xb0, 0x12, 0x00, 0x00, 0xa8, 0x12, 0x00, 0x00,
  0xa0, 0x12, 0x00, 0x00, 0x98, 0x12, 0x00, 0x00, 0x90, 0x12, 0x00, 0x00,
  0x88, 0x12, 0x00, 0x00, 0x80, 0x12, 0x00, 0x00, 0x78, 0x12, 0x00, 0x00,
  0x70, 0x12, 0x00, 0x00, 0x68, 0x12, 0x00, 0x00, 0x60, 0x12, 0x00, 0x00,
  0x58, 0x12, 0x00, 0x00, 0x50, 0x12, 0x00, 0x00, 0x48, 0x12, 0x00, 0x00,
  0x40, 0x12, 0x00, 0x00, 0x38, 0x12, 0x00, 0x00, 0x30, 0x12, 0x00, 0x00,
  0x28, 0x12, 0x00, 0x00, 0x20, 0x12, 0x00, 0x00, 0x18, 0x12, 0x00, 0x00,
  0x10, 0x12, 0x00, 0x00, 0x08, 0x12, 0x00, 0x00, 0x00, 0x12, 0x00, 0x00,
  0xf8, 0x11, 0x00, 0x00, 0xf0, 0x11, 0x00, 0x00, 0xe8, 0x11, 0x00, 0x00,
  0xe0, 0x11, 0x00, 0x00, 0xd8, 0x11, 0x00, 0x00, 0xd0, 0x11, 0x00, 0x00,
  0xc8, 0x11, 0x00, 0x00, 0xc0, 0x11, 0x00, 0x00, 0xb8, 0x11, 0x00, 0x00,
  0xb0, 0x11, 0x00, 0x00, 0xa8, 0x11, 0x00, 0x00, 0xa0, 0x11, 0x00, 0x00,
  0x98, 0x11, 0x00, 0x00, 0x90, 0x11, 0x00, 0x00, 0x88, 0x11, 0x00, 0x00,
  0x80, 0x11, 0x00, 0x00, 0x78, 0x11, 0x00, 0x00, 0x70, 0x11, 0x00, 0x00,
  0x68, 0x11, 0x00, 0x00, 0x60, 0x11, 0x00, 0x00, 0x58, 0x11, 0x00, 0x00,
  0x50, 0x11, 0x00, 0x00, 0x48, 0x11, 0x00, 0x00, 0x40, 0x11, 0x00, 0x00,
  0x38, 0x11, 0x00, 0x00, 0x30, 0x11, 0x00, 0x00, 0x28, 0x11, 0x00, 0x00,
  0x20, 0x11, 0x00, 0x00, 0x18, 0x11, 0x00, 0x00, 0x04, 0x11, 0x00, 0x00,
  0xfc, 0x10, 0x00, 0x00, 0xf4, 0x10, 0x00, 0x00, 0xec, 0x10, 0x00, 0x00,
  0xe4, 0x10, 0x00, 0x00, 0xdc, 0x10, 0x00, 0x00, 0xd4, 0x10, 0x00, 0x00,
  0xcc, 0x10, 0x00, 0x00, 0xc4, 0x10, 0x00, 0x00, 0xbc, 0x10, 0x00, 0x00,
  0xb4, 0x10, 0x00, 0x00, 0xac, 0x10, 0x00, 0x00, 0xa4, 0x10, 0x00, 0x00,
  0x9c, 0x10, 0x00, 0x00, 0x94, 0x10, 0x00, 0x00, 0x8c, 0x10, 0x00, 0x00,
  0x84, 0x10, 0x00, 0x00, 0x7c, 0x10, 0x00, 0x00, 0x74, 0x10, 0x00, 0x00,
  0x6c, 0x10, 0x00, 0x00, 0x64, 0x10, 0x00, 0x00, 0x5c, 0x10, 0x00, 0x00,
  0x54, 0x10, 0x00, 0x00, 0x40, 0x10, 0x00, 0x00, 0x38, 0x10, 0x00, 0x00,
  0x30, 0x10, 0x00, 0x00, 0x28, 0x10, 0x00, 0x00, 0x20, 0x10, 0x00, 0x00,
  0x18, 0x10, 0x00, 0x00, 0x10, 0x10, 0x00, 0x00, 0x08, 0x10, 0x00, 0x00,
  0x00, 0x10, 0x00, 0x00, 0xf8, 0x0f, 0x00, 0x00, 0xf0, 0x0f, 0x00, 0x00,
  0xe8, 0x0f, 0x00, 0x00, 0xe0, 0x0f, 0x00, 0x00, 0xd8, 0x0f, 0x00, 0x00,
  0xc4, 0x0f, 0x00, 0x00, 0xbc, 0x0f, 0x00, 0x00, 0xb4, 0x0f, 0x00, 0x00,
  0xac, 0x0f, 0x00, 0x00, 0xa4, 0x0f, 0x00, 0x00, 0x9c, 0x0f, 0x00, 0x00,
  0x88, 0x0f, 0x00, 0x00, 0x80, 0x0f, 0x00, 0x00, 0x78, 0x0f, 0x00, 0x00,
  0x70, 0x0f, 0x00, 0x00, 0x68, 0x0f, 0x00, 0x00, 0x60, 0x0f, 0x00, 0x00,
  0x58, 0x0f, 0x00, 0x00, 0x50, 0x0f, 0x00, 0x00, 0x48, 0x0f, 0x00, 0x00,
  0x40, 0x0f, 0x00, 0x00, 0x38, 0x0f, 0x00, 0x00, 0x30, 0x0f, 0x00, 0x00,
  0x28, 0x0f, 0x00, 0x00, 0x20, 0x0f, 0x00, 0x00, 0x18, 0x0f, 0x00, 0x00,
  0x10, 0x0f, 0x00, 0x00, 0x08, 0x0f, 0x00, 0x00, 0x00, 0x0f, 0x00, 0x00,
  0xf8, 0x0e, 0x00, 0x00, 0xe4, 0x0e, 0x00, 0x00, 0xdc, 0x0e, 0x00, 0x00,
  0xd4, 0x0e, 0x00, 0x00, 0xcc, 0x0e, 0x00, 0x00, 0xc4, 0x0e, 0x00, 0x00,
  0xbc, 0x0e, 0x00, 0x00, 0xb4, 0x0e, 0x00, 0x00, 0xac, 0x0e, 0x00, 0x00,
  0xa4, 0x0e, 0x00, 0x00, 0x9c, 0x0e, 0x00, 0x00, 0x94, 0x0e, 0x00, 0x00,
  0x8c, 0x0e, 0x00, 0x00, 0x84, 0x0e, 0x00, 0x00, 0x7c, 0x0e, 0x00, 0x00,
  0x74, 0x0e, 0x00, 0x00, 0x6c, 0x0e, 0x00, 0x00, 0x64, 0x0e, 0x00, 0x00,
  0x5c, 0x0e, 0x00, 0x00, 0x54, 0x0e, 0x00, 0x00, 0x40, 0x0e, 0x00, 0x00,
  0x38, 0x0e, 0x00, 0x00, 0x24, 0x0e, 0x00, 0x00, 0x1c, 0x0e, 0x00, 0x00,
  0x14, 0x0e, 0x00, 0x00, 0x00, 0x0e, 0x00, 0x00, 0xf8, 0x0d, 0x00, 0x00,
  0xf0, 0x0d, 0x00, 0x00, 0xe8, 0x0d, 0x00, 0x00, 0xd4, 0x0d, 0x00, 0x00,
  0xcc, 0x0d, 0x00, 0x00, 0xc4, 0x0d, 0x00, 0x00, 0xbc, 0x0d, 0x00, 0x00,
  0xb4, 0x0d, 0x00, 0x00, 0xac, 0x0d, 0x00, 0x00, 0xa4, 0x0d, 0x00, 0x00,
  0x9c, 0x0d, 0x00, 0x00, 0x94, 0x0d, 0x00, 0x00, 0x8c, 0x0d, 0x00, 0x00,
  0x84, 0x0d, 0x00, 0x00, 0x7c, 0x0d, 0x00, 0x00, 0x74, 0x0d, 0x00, 0x00,
  0x6c, 0x0d, 0x00, 0x00, 0x64, 0x0d, 0x00, 0x00, 0x5c, 0x0d, 0x00, 0x00,
  0x54, 0x0d, 0x00, 0x00, 0x4c, 0x0d, 0x00, 0x00, 0x44, 0x0d, 0x00, 0x00,
  0x3c, 0x0d, 0x00, 0x00, 0x34, 0x0d, 0x00, 0x00, 0x2c, 0x0d, 0x00, 0x00,
  0x24, 0x0d, 0x00, 0x00, 0x1c, 0x0d, 0x00, 0x00, 0x14, 0x0d, 0x00, 0x00,
  0x0c, 0x0d, 0x00, 0x00, 0x04, 0x0d, 0x00, 0x00, 0xfc, 0x0c, 0x00, 0x00,
  0xf4, 0x0c, 0x00, 0x00, 0xec, 0x0c, 0x00, 0x00, 0xe4, 0x0c, 0x00, 0x00,
  0xdc, 0x0c, 0x00, 0x00, 0xd4, 0x0c, 0x00, 0x00, 0xcc, 0x0c, 0x00, 0x00,
  0xc4, 0x0c, 0x00, 0x00, 0xbc, 0x0c, 0x00, 0x00, 0xb4, 0x0c, 0x00, 0x00,
  0xac, 0x0c, 0x00, 0x00, 0xa4, 0x0c, 0x00, 0x00, 0x9c, 0x0c, 0x00, 0x00,
  0x94, 0x0c, 0x00, 0x00, 0x8c, 0x0c, 0x00, 0x00, 0x84, 0x0c, 0x00, 0x00,
  0x7c, 0x0c, 0x00, 0x00, 0x74, 0x0c, 0x00, 0x00, 0x6c, 0x0c, 0x00, 0x00,
  0x58, 0x0c, 0x00, 0x00, 0x50, 0x0c, 0x00, 0x00, 0x48, 0x0c, 0x00, 0x00,
  0x40, 0x0c, 0x00, 0x00, 0x38, 0x0c, 0x00, 0x00, 0x30, 0x0c, 0x00, 0x00,
  0x28, 0x0c, 0x00, 0x00, 0x20, 0x0c, 0x00, 0x00, 0x18, 0x0c, 0x00, 0x00,
  0x10, 0x0c, 0x00, 0x00, 0x08, 0x0c, 0x00, 0x00, 0x00, 0x0c, 0x00, 0x00,
  0xf8, 0x0b, 0x00, 0x00, 0xf0, 0x0b, 0x00, 0x00, 0xe8, 0x0b, 0x00, 0x00,
  0xe0, 0x0b, 0x00, 0x00, 0xd8, 0x0b, 0x00, 0x00, 0xd0, 0x0b, 0x00, 0x00,
  0xc8, 0x0b, 0x00, 0x00, 0xc0, 0x0b, 0x00, 0x00, 0xb8, 0x0b, 0x00, 0x00,
  0xb0, 0x0b, 0x00, 0x00, 0xa8, 0x0b, 0x00, 0x00, 0xa0, 0x0b, 0x00, 0x00,
  0x98, 0x0b, 0x00, 0x00, 0x90, 0x0b, 0x00, 0x00, 0x88, 0x0b, 0x00, 0x00,
  0x80, 0x0b, 0x00, 0x00, 0x78, 0x0b, 0x00, 0x00, 0x70, 0x0b, 0x00, 0x00,
  0x68, 0x0b, 0x00, 0x00, 0x60, 0x0b, 0x00, 0x00, 0x58, 0x0b, 0x00, 0x00,
  0x50, 0x0b, 0x00, 0x00, 0xe0, 0x0a, 0x00, 0x00, 0xd8, 0x0a, 0x00, 0x00,
  0xd0, 0x0a, 0x00, 0x00, 0xc8, 0x0a, 0x00, 0x00, 0xb4, 0x0a, 0x00, 0x00,
  0xac, 0x0a, 0x00, 0x00, 0xa4, 0x0a, 0x00, 0x00, 0x9c, 0x0a, 0x00, 0x00,
  0x94, 0x0a, 0x00, 0x00, 0x8c, 0x0a, 0x00, 0x00, 0x84, 0x0a, 0x00, 0x00,
  0x7c, 0x0a, 0x00, 0x00, 0x74, 0x0a, 0x00, 0x00, 0x6c, 0x0a, 0x00, 0x00,
  0x64, 0x0a, 0x00, 0x00, 0x5c, 0x0a, 0x00, 0x00, 0x54, 0x0a, 0x00, 0x00,
  0x4c, 0x0a, 0x00, 0x00, 0x44, 0x0a, 0x00, 0x00, 0x3c, 0x0a, 0x00, 0x00,
  0x34, 0x0a, 0x00, 0x00, 0x2c, 0x0a, 0x00, 0x00, 0x24, 0x0a, 0x00, 0x00,
  0x1c, 0x0a, 0x00, 0x00, 0x14, 0x0a, 0x00, 0x00, 0x0c, 0x0a, 0x00, 0x00,
  0x04, 0x0a, 0x00, 0x00, 0xfc, 0x09, 0x00, 0x00, 0xf4, 0x09, 0x00, 0x00,
  0xec, 0x09, 0x00, 0x00, 0xe4, 0x09, 0x00, 0x00, 0xd0, 0x09, 0x00, 0x00,
  0xc8, 0x09, 0x00, 0x00, 0xc0, 0x09, 0x00, 0x00, 0xac, 0x09, 0x00, 0x00,
  0xa4, 0x09, 0x00, 0x00, 0x9c, 0x09, 0x00, 0x00, 0x94, 0x09, 0x00, 0x00,
  0x8c, 0x09, 0x00, 0x00, 0x84, 0x09, 0x00, 0x00, 0x64, 0x09, 0x00, 0x00,
  0x5c, 0x09, 0x00, 0x00, 0x54, 0x09, 0x00, 0x00, 0x4c, 0x09, 0x00, 0x00,
  0x44, 0x09, 0x00, 0x00, 0x3c, 0x09, 0x00, 0x00, 0x34, 0x09, 0x00, 0x00,
  0x2c, 0x09, 0x00, 0x00, 0x24, 0x09, 0x00, 0x00, 0x1c, 0x09, 0x00, 0x00,
  0x14, 0x09, 0x00, 0x00, 0x0c, 0x09, 0x00, 0x00, 0x04, 0x09, 0x00, 0x00,
  0xfc, 0x08, 0x00, 0x00, 0xf4, 0x08, 0x00, 0x00, 0xec, 0x08, 0x00, 0x00,
  0xe4, 0x08, 0x00, 0x00, 0xdc, 0x08, 0x00, 0x00, 0xd4, 0x08, 0x00, 0x00,
  0xcc, 0x08, 0x00, 0x00, 0xc4, 0x08, 0x00, 0x00, 0xb0, 0x08, 0x00, 0x00,
  0xa8, 0x08, 0x00, 0x00, 0xa0, 0x08, 0x00, 0x00, 0x98, 0x08, 0x00, 0x00,
  0x90, 0x08, 0x00, 0x00, 0x88, 0x08, 0x00, 0x00, 0x80, 0x08, 0x00, 0x00,
  0x78, 0x08, 0x00, 0x00, 0x70, 0x08, 0x00, 0x00, 0x5c, 0x08, 0x00, 0x00,
  0x54, 0x08, 0x00, 0x00, 0x4c, 0x08, 0x00, 0x00, 0x44, 0x08, 0x00, 0x00,
  0x28, 0x08, 0x00, 0x00, 0x20, 0x08, 0x00, 0x00, 0x18, 0x08, 0x00, 0x00,
  0x04, 0x08, 0x00, 0x00, 0xfc, 0x07, 0x00, 0x00, 0xf4, 0x07, 0x00, 0x00,
  0xec, 0x07, 0x00, 0x00, 0xe4, 0x07, 0x00, 0x00, 0xdc, 0x07, 0x00, 0x00,
  0xd4, 0x07, 0x00, 0x00, 0xcc, 0x07, 0x00, 0x00, 0xc4, 0x07, 0x00, 0x00,
  0xbc, 0x07, 0x00, 0x00, 0xb4, 0x07, 0x00, 0x00, 0xac, 0x07, 0x00, 0x00,
  0x98, 0x07, 0x00, 0x00, 0x84, 0x07, 0x00, 0x00, 0x7c, 0x07, 0x00, 0x00,
  0x74, 0x07, 0x00, 0x00, 0x6c, 0x07, 0x00, 0x00, 0x64, 0x07, 0x00, 0x00,
  0x5c, 0x07, 0x00, 0x00, 0x54, 0x07, 0x00, 0x00, 0x4c, 0x07, 0x00, 0x00,
  0x44, 0x07, 0x00, 0x00, 0x3c, 0x07, 0x00, 0x00, 0x34, 0x07, 0x00, 0x00,
  0x2c, 0x07, 0x00, 0x00, 0x24, 0x07, 0x00, 0x00, 0x10, 0x07, 0x00, 0x00,
  0x08, 0x07, 0x00, 0x00, 0xf4, 0x06, 0x00, 0x00, 0xe0, 0x06, 0x00, 0x00,
  0xcc, 0x06, 0x00, 0x00, 0xc4, 0x06, 0x00, 0x00, 0xbc, 0x06, 0x00, 0x00,
  0xa8, 0x06, 0x00, 0x00, 0xa0, 0x06, 0x00, 0x00, 0x98, 0x06, 0x00, 0x00,
  0x90, 0x06, 0x00, 0x00, 0x88, 0x06, 0x00, 0x00, 0x80, 0x06, 0x00, 0x00,
  0x78, 0x06, 0x00, 0x00, 0x70, 0x06, 0x00, 0x00, 0x68, 0x06, 0x00, 0x00,
  0x54, 0x06, 0x00, 0x00, 0x4c, 0x06, 0x00, 0x00, 0x38, 0x06, 0x00, 0x00,
  0x30, 0x06, 0x00, 0x00, 0x28, 0x06, 0x00, 0x00, 0x20, 0x06, 0x00, 0x00,
  0x18, 0x06, 0x00, 0x00, 0x10, 0x06, 0x00, 0x00, 0x08, 0x06, 0x00, 0x00,
  0x00, 0x06, 0x00, 0x00, 0xec, 0x05, 0x00, 0x00, 0xd8, 0x05, 0x00, 0x00,
  0xd0, 0x05, 0x00, 0x00, 0xbc, 0x05, 0x00, 0x00, 0xb4, 0x05, 0x00, 0x00,
  0xac, 0x05, 0x00, 0x00, 0x98, 0x05, 0x00, 0x00, 0x90, 0x05, 0x00, 0x00,
  0x88, 0x05, 0x00, 0x00, 0x74, 0x05, 0x00, 0x00, 0x60, 0x05, 0x00, 0x00,
  0x58, 0x05, 0x00, 0x00, 0x50, 0x05, 0x00, 0x00, 0x3c, 0x05, 0x00, 0x00,
  0x28, 0x05, 0x00, 0x00, 0x14, 0x05, 0x00, 0x00, 0x0c, 0x05, 0x00, 0x00,
  0x04, 0x05, 0x00, 0x00, 0xfc, 0x04, 0x00, 0x00, 0xe8, 0x04, 0x00, 0x00,
  0xe0, 0x04, 0x00, 0x00, 0xd8, 0x04, 0x00, 0x00, 0xd0, 0x04, 0x00, 0x00,
  0xc8, 0x04, 0x00, 0x00, 0xc0, 0x04, 0x00, 0x00, 0xac, 0x04, 0x00, 0x00,
  0xa4, 0x04, 0x00, 0x00, 0x9c, 0x04, 0x00, 0x00, 0x94, 0x04, 0x00, 0x00,
  0x8c, 0x04, 0x00, 0x00, 0x78, 0x04, 0x00, 0x00, 0x70, 0x04, 0x00, 0x00,
  0x68, 0x04, 0x00, 0x00, 0x54, 0x04, 0x00, 0x00, 0x40, 0x04, 0x00, 0x00,
  0x38, 0x04, 0x00, 0x00, 0x30, 0x04, 0x00, 0x00, 0x28, 0x04, 0x00, 0x00,
  0x20, 0x04, 0x00, 0x00, 0x0c, 0x04, 0x00, 0x00, 0x04, 0x04, 0x00, 0x00,
  0xf0, 0x03, 0x00, 0x00, 0xe8, 0x03, 0x00, 0x00, 0xe0, 0x03, 0x00, 0x00,
  0xd8, 0x03, 0x00, 0x00, 0xc4, 0x03, 0x00, 0x00, 0xbc, 0x03, 0x00, 0x00,
  0xb4, 0x03, 0x00, 0x00, 0xac, 0x03, 0x00, 0x00, 0xa4, 0x03, 0x00, 0x00,
  0x9c, 0x03, 0x00, 0x00, 0x94, 0x03, 0x00, 0x00, 0x8c, 0x03, 0x00, 0x00,
  0x78, 0x03, 0x00, 0x00, 0x70, 0x03, 0x00, 0x00, 0x68, 0x03, 0x00, 0x00,
  0x54, 0x03, 0x00, 0x00, 0x4c, 0x03, 0x00, 0x00, 0x44, 0x03, 0x00, 0x00,
  0x30, 0x03, 0x00, 0x00, 0x28, 0x03, 0x00, 0x00, 0x20, 0x03, 0x00, 0x00,
  0x18, 0x03, 0x00, 0x00, 0x04, 0x03, 0x00, 0x00, 0xfc, 0x02, 0x00, 0x00,
  0xe8, 0x02, 0x00, 0x00, 0xd4, 0x02, 0x00, 0x00, 0xcc, 0x02, 0x00, 0x00,
  0xb8, 0x02, 0x00, 0x00, 0xb0, 0x02, 0x00, 0x00, 0xa8, 0x02, 0x00, 0x00,
  0xa0, 0x02, 0x00, 0x00, 0x98, 0x02, 0x00, 0x00, 0x84, 0x02, 0x00, 0x00,
  0x7c, 0x02, 0x00, 0x00, 0x74, 0x02, 0x00, 0x00, 0x6c, 0x02, 0x00, 0x00,
  0x64, 0x02, 0x00, 0x00, 0x5c, 0x02, 0x00, 0x00, 0x54, 0x02, 0x00, 0x00,
  0x4c, 0x02, 0x00, 0x00, 0x44, 0x02, 0x00, 0x00, 0x3c, 0x02, 0x00, 0x00,
  0x34, 0x02, 0x00, 0x00, 0x20, 0x02, 0x00, 0x00, 0x18, 0x02, 0x00, 0x00,
  0x10, 0x02, 0x00, 0x00, 0xfc, 0x01, 0x00, 0x00, 0xe8, 0x01, 0x00, 0x00,
  0xe0, 0x01, 0x00, 0x00, 0xd8, 0x01, 0x00, 0x00, 0xd0, 0x01, 0x00, 0x00,
  0xc8, 0x01, 0x00, 0x00, 0xc0, 0x01, 0x00, 0x00, 0xb8, 0x01, 0x00, 0x00,
  0xb0, 0x01, 0x00, 0x00, 0x9c, 0x01, 0x00, 0x00, 0x94, 0x01, 0x00, 0x00,
  0x8c, 0x01, 0x00, 0x00, 0x78, 0x01, 0x00, 0x00, 0x70, 0x01, 0x00, 0x00,
  0x68, 0x01, 0x00, 0x00, 0x54, 0x01, 0x00, 0x00, 0x40, 0x01, 0x00, 0x00,
  0x38, 0x01, 0x00, 0x00, 0x30, 0x01, 0x00, 0x00, 0x28, 0x01, 0x00, 0x00,
  0x20, 0x01, 0x00, 0x00, 0x18, 0x01, 0x00, 0x00, 0x10, 0x01, 0x00, 0x00,
  0x08, 0x01, 0x00, 0x00, 0xf4, 0x00, 0x00, 0x00, 0xec, 0x00, 0x00, 0x00,
  0xe4, 0x00, 0x00, 0x00, 0xd0, 0x00, 0x00, 0x00, 0xc8, 0x00, 0x00, 0x00,
  0xc0, 0x00, 0x00, 0x00, 0xb8, 0x00, 0x00, 0x00, 0xb0, 0x00, 0x00, 0x00,
  0xa8, 0x00, 0x00, 0x00, 0x94, 0x00, 0x00, 0x00, 0x8c, 0x00, 0x00, 0x00,
  0x78, 0x00, 0x00, 0x00, 0x70, 0x00, 0x00, 0x00, 0x5c, 0x00, 0x00, 0x00,
  0x54, 0x00, 0x00, 0x00, 0x4c, 0x00, 0x00, 0x00, 0x38, 0x00, 0x00, 0x00,
  0x30, 0x00, 0x00, 0x00, 0x1c, 0x00, 0x00, 0x00, 0x04, 0x00, 0x00, 0x00,
  0x52, 0x9c, 0xff, 0xff, 0x04, 0x00, 0x00, 0x00, 0x05, 0x00, 0x00, 0x00,
  0x31, 0x2e, 0x35, 0x2e, 0x30, 0x00, 0x00, 0x00, 0x66, 0x9c, 0xff, 0xff,
  0x04, 0x00, 0x00, 0x00, 0x02, 0x00, 0x00, 0x00, 0x00, 0x3c, 0x00, 0x00,
  0xc0, 0xd3, 0xfe, 0xff, 0x7a, 0x9c, 0xff, 0xff, 0x04, 0x00, 0x00, 0x00,
  0x02, 0x00, 0x00, 0x00, 0x00, 0x3c, 0x00, 0x00, 0xd4, 0xd3, 0xfe, 0xff,
  0xd8, 0xd3, 0xfe, 0xff, 0x92, 0x9c, 0xff, 0xff, 0x04, 0x00, 0x00, 0x00,
  0x02, 0x00, 0x00, 0x00, 0x00, 0x3c, 0x00, 0x00, 0xec, 0xd3, 0xfe, 0xff,
  0xa6, 0x9c, 0xff, 0xff, 0x04, 0x00, 0x00, 0x00, 0x04, 0x00, 0x00, 0x00,
  0x01, 0x00, 0x00, 0x00, 0x00, 0xd4, 0xfe, 0xff, 0xba, 0x9c, 0xff, 0xff,
  0x04, 0x00, 0x00, 0x00, 0x04, 0x00, 0x00, 0x00, 0x01, 0x00, 0x00, 0x00,
  0x14, 0xd4, 0xfe, 0xff, 0x18, 0xd4, 0xfe, 0xff, 0x1c, 0xd4, 0xfe, 0xff,
  0x20, 0xd4, 0xfe, 0xff, 0x24, 0xd4, 0xfe, 0xff, 0xde, 0x9c, 0xff, 0xff,
  0x04, 0x00, 0x00, 0x00, 0x04, 0x00, 0x00, 0x00, 0x01, 0x00, 0x00, 0x00,
  0x38, 0xd4, 0xfe, 0xff, 0x3c, 0xd4, 0xfe, 0xff, 0xf6, 0x9c, 0xff, 0xff,
  0x04, 0x00, 0x00, 0x00, 0x02, 0x00, 0x00, 0x00, 0x00, 0x3c, 0x00, 0x00,
  0x50, 0xd4, 0xfe, 0xff, 0x54, 0xd4, 0xfe, 0xff, 0x58, 0xd4, 0xfe, 0xff,
  0x5c, 0xd4, 0xfe, 0xff, 0x60, 0xd4, 0xfe, 0xff, 0x64, 0xd4, 0xfe, 0xff,
  0x68, 0xd4, 0xfe, 0xff, 0x22, 0x9d, 0xff, 0xff, 0x04, 0x00, 0x00, 0x00,
  0x02, 0x00, 0x00, 0x00, 0x00, 0x3c, 0x00, 0x00, 0x32, 0x9d, 0xff, 0xff,
  0x04, 0x00, 0x00, 0x00, 0x02, 0x00, 0x00, 0x00, 0x00, 0x3c, 0x00, 0x00,
  0x8c, 0xd4, 0xfe, 0xff, 0x90, 0xd4, 0xfe, 0xff, 0x4a, 0x9d, 0xff, 0xff,
  0x04, 0x00, 0x00, 0x00, 0x04, 0x00, 0x00, 0x00, 0x01, 0x00, 0x00, 0x00,
  0xa4, 0xd4, 0xfe, 0xff, 0xa8, 0xd4, 0xfe, 0xff, 0x62, 0x9d, 0xff, 0xff,
  0x04, 0x00, 0x00, 0x00, 0x04, 0x00, 0x00, 0x00, 0x01, 0x00, 0x00, 0x00,
  0xbc, 0xd4, 0xfe, 0xff, 0xc0, 0xd4, 0xfe, 0xff, 0xc4, 0xd4, 0xfe, 0xff,
  0xc8, 0xd4, 0xfe, 0xff, 0xcc, 0xd4, 0xfe, 0xff, 0xd0, 0xd4, 0xfe, 0xff,
  0xd4, 0xd4, 0xfe, 0xff, 0x8e, 0x9d, 0xff, 0xff, 0x04, 0x00, 0x00, 0x00,
  0x04, 0x00, 0x00, 0x00, 0x01, 0x00, 0x00, 0x00, 0x9e, 0x9d, 0xff, 0xff,
  0x04, 0x00, 0x00, 0x00, 0x02, 0x00, 0x00, 0x00, 0x00, 0x3c, 0x00, 0x00,
  0xf8, 0xd4, 0xfe, 0xff, 0xfc, 0xd4, 0xfe, 0xff, 0xb6, 0x9d, 0xff, 0xff,
  0x04, 0x00, 0x00, 0x00, 0x04, 0x00, 0x00, 0x00, 0x01, 0x00, 0x00, 0x00,
  0x10, 0xd5, 0xfe, 0xff, 0x14, 0xd5, 0xfe, 0xff, 0x18, 0xd5, 0xfe, 0xff,
  0x1c, 0xd5, 0xfe, 0xff, 0x20, 0xd5, 0xfe, 0xff, 0x24, 0xd5, 0xfe, 0xff,
  0x28, 0xd5, 0xfe, 0xff, 0x2c, 0xd5, 0xfe, 0xff, 0x30, 0xd5, 0xfe, 0xff,
  0x34, 0xd5, 0xfe, 0xff, 0xee, 0x9d, 0xff, 0xff, 0x04, 0x00, 0x00, 0x00,
  0x04, 0x00, 0x00, 0x00, 0x01, 0x00, 0x00, 0x00, 0x48, 0xd5, 0xfe, 0xff,
  0x4c, 0xd5, 0xfe, 0xff, 0x50, 0xd5, 0xfe, 0xff, 0x54, 0xd5, 0xfe, 0xff,
  0x0e, 0x9e, 0xff, 0xff, 0x04, 0x00, 0x00, 0x00, 0x02, 0x00, 0x00, 0x00,
  0x00, 0x3c, 0x00, 0x00, 0x68, 0xd5, 0xfe, 0xff, 0x22, 0x9e, 0xff, 0xff,
  0x04, 0x00, 0x00, 0x00, 0x02, 0x00, 0x00, 0x00, 0x00, 0x3c, 0x00, 0x00,
  0x32, 0x9e, 0xff, 0xff, 0x04, 0x00, 0x00, 0x00, 0x02, 0x00, 0x00, 0x00,
  0x00, 0x3c, 0x00, 0x00, 0x8c, 0xd5, 0xfe, 0xff, 0x46, 0x9e, 0xff, 0xff,
  0x04, 0x00, 0x00, 0x00, 0x02, 0x00, 0x00, 0x00, 0x00, 0x3c, 0x00, 0x00,
  0xa0, 0xd5, 0xfe, 0xff, 0xa4, 0xd5, 0xfe, 0xff, 0xa8, 0xd5, 0xfe, 0xff,
  0x62, 0x9e, 0xff, 0xff, 0x04, 0x00, 0x00, 0x00, 0x04, 0x00, 0x00, 0x00,
  0x01, 0x00, 0x00, 0x00, 0xbc, 0xd5, 0xfe, 0xff, 0xc0, 0xd5, 0xfe, 0xff,
  0x7a, 0x9e, 0xff, 0xff, 0x04, 0x00, 0x00, 0x00, 0x02, 0x00, 0x00, 0x00,
  0x00, 0x3c, 0x00, 0x00, 0xd4, 0xd5, 0xfe, 0xff, 0xd8, 0xd5, 0xfe, 0xff,
  0x92, 0x9e, 0xff, 0xff, 0x04, 0x00, 0x00, 0x00, 0x04, 0x00, 0x00, 0x00,
  0x01, 0x00, 0x00, 0x00, 0xec, 0xd5, 0xfe, 0xff, 0xf0, 0xd5, 0xfe, 0xff,
  0xf4, 0xd5, 0xfe, 0xff, 0xf8, 0xd5, 0xfe, 0xff, 0xfc, 0xd5, 0xfe, 0xff,
  0x00, 0xd6, 0xfe, 0xff, 0x04, 0xd6, 0xfe, 0xff, 0xbe, 0x9e, 0xff, 0xff,
  0x04, 0x00, 0x00, 0x00, 0x02, 0x00, 0x00, 0x00, 0x00, 0x3c, 0x00, 0x00,
  0x18, 0xd6, 0xfe, 0xff, 0x1c, 0xd6, 0xfe, 0xff, 0x20, 0xd6, 0xfe, 0xff,
  0xda, 0x9e, 0xff, 0xff, 0x04, 0x00, 0x00, 0x00, 0x02, 0x00, 0x00, 0x00,
  0x00, 0x3c, 0x00, 0x00, 0x34, 0xd6, 0xfe, 0xff, 0xee, 0x9e, 0xff, 0xff,
  0x04, 0x00, 0x00, 0x00, 0x02, 0x00, 0x00, 0x00, 0x00, 0x3c, 0x00, 0x00,
  0x48, 0xd6, 0xfe, 0xff, 0x4c, 0xd6, 0xfe, 0xff, 0x50, 0xd6, 0xfe, 0xff,
  0x54, 0xd6, 0xfe, 0xff, 0x0e, 0x9f, 0xff, 0xff, 0x04, 0x00, 0x00, 0x00,
  0x02, 0x00, 0x00, 0x00, 0x00, 0x3c, 0x00, 0x00, 0x1e, 0x9f, 0xff, 0xff,
  0x04, 0x00, 0x00, 0x00, 0x04, 0x00, 0x00, 0x00, 0x01, 0x00, 0x00, 0x00,
  0x78, 0xd6, 0xfe, 0xff, 0x7c, 0xd6, 0xfe, 0xff, 0x36, 0x9f, 0xff, 0xff,
  0x04, 0x00, 0x00, 0x00, 0x04, 0x00, 0x00, 0x00, 0x01, 0x00, 0x00, 0x00,
  0x90, 0xd6, 0xfe, 0xff, 0x94, 0xd6, 0xfe, 0xff, 0x98, 0xd6, 0xfe, 0xff,
  0x9c, 0xd6, 0xfe, 0xff, 0x56, 0x9f, 0xff, 0xff, 0x04, 0x00, 0x00, 0x00,
  0x04, 0x00, 0x00, 0x00, 0x01, 0x00, 0x00, 0x00, 0xb0, 0xd6, 0xfe, 0xff,
  0xb4, 0xd6, 0xfe, 0xff, 0xb8, 0xd6, 0xfe, 0xff, 0xbc, 0xd6, 0xfe, 0xff,
  0xc0, 0xd6, 0xfe, 0xff, 0x7a, 0x9f, 0xff, 0xff, 0x04, 0x00, 0x00, 0x00,
  0x04, 0x00, 0x00, 0x00, 0x01, 0x00, 0x00, 0x00, 0xd4, 0xd6, 0xfe, 0xff,
  0xd8, 0xd6, 0xfe, 0xff, 0xdc, 0xd6, 0xfe, 0xff, 0x96, 0x9f, 0xff, 0xff,
  0x04, 0x00, 0x00, 0x00, 0x02, 0x00, 0x00, 0x00, 0x00, 0x3c, 0x00, 0x00,
  0xa6, 0x9f, 0xff, 0xff, 0x04, 0x00, 0x00, 0x00, 0x04, 0x00, 0x00, 0x00,
  0x01, 0x00, 0x00, 0x00, 0xb6, 0x9f, 0xff, 0xff, 0x04, 0x00, 0x00, 0x00,
  0x02, 0x00, 0x00, 0x00, 0x00, 0x3c, 0x00, 0x00, 0x10, 0xd7, 0xfe, 0xff,
  0x14, 0xd7, 0xfe, 0xff, 0xce, 0x9f, 0xff, 0xff, 0x04, 0x00, 0x00, 0x00,
  0x02, 0x00, 0x00, 0x00, 0x00, 0x3c, 0x00, 0x00, 0xde, 0x9f, 0xff, 0xff,
  0x04, 0x00, 0x00, 0x00, 0x02, 0x00, 0x00, 0x00, 0x00, 0x3c, 0x00, 0x00,
  0x38, 0xd7, 0xfe, 0xff, 0x3c, 0xd7, 0xfe, 0xff, 0xf6, 0x9f, 0xff, 0xff,
  0x04, 0x00, 0x00, 0x00, 0x04, 0x00, 0x00, 0x00, 0x01, 0x00, 0x00, 0x00,
  0x50, 0xd7, 0xfe, 0xff, 0x54, 0xd7, 0xfe, 0xff, 0x0e, 0xa0, 0xff, 0xff,
  0x04, 0x00, 0x00, 0x00, 0x02, 0x00, 0x00, 0x00, 0x00, 0x3c, 0x00, 0x00,
  0x68, 0xd7, 0xfe, 0xff, 0x22, 0xa0, 0xff, 0xff, 0x04, 0x00, 0x00, 0x00,
  0x04, 0x00, 0x00, 0x00, 0x01, 0x00, 0x00, 0x00, 0x32, 0xa0, 0xff, 0xff,
  0x04, 0x00, 0x00, 0x00, 0x04, 0x00, 0x00, 0x00, 0x01, 0x00, 0x00, 0x00,
  0x8c, 0xd7, 0xfe, 0xff, 0x90, 0xd7, 0xfe, 0xff, 0x94, 0xd7, 0xfe, 0xff,
  0x98, 0xd7, 0xfe, 0xff, 0x9c, 0xd7, 0xfe, 0xff, 0xa0, 0xd7, 0xfe, 0xff,
  0xa4, 0xd7, 0xfe, 0xff, 0x5e, 0xa0, 0xff, 0xff, 0x04, 0x00, 0x00, 0x00,
  0x02, 0x00, 0x00, 0x00, 0x00, 0x3c, 0x00, 0x00, 0xb8, 0xd7, 0xfe, 0xff,
  0x72, 0xa0, 0xff, 0xff, 0x04, 0x00, 0x00, 0x00, 0x04, 0x00, 0x00, 0x00,
  0x01, 0x00, 0x00, 0x00, 0xcc, 0xd7, 0xfe, 0xff, 0xd0, 0xd7, 0xfe, 0xff,
  0xd4, 0xd7, 0xfe, 0xff, 0xd8, 0xd7, 0xfe, 0xff, 0xdc, 0xd7, 0xfe, 0xff,
  0xe0, 0xd7, 0xfe, 0xff, 0xe4, 0xd7, 0xfe, 0xff, 0xe8, 0xd7, 0xfe, 0xff,
  0xa2, 0xa0, 0xff, 0xff, 0x04, 0x00, 0x00, 0x00, 0x04, 0x00, 0x00, 0x00,
  0x01, 0x00, 0x00, 0x00, 0xfc, 0xd7, 0xfe, 0xff, 0x00, 0xd8, 0xfe, 0xff,
  0xba, 0xa0, 0xff, 0xff, 0x04, 0x00, 0x00, 0x00, 0x04, 0x00, 0x00, 0x00,
  0x01, 0x00, 0x00, 0x00, 0xca, 0xa0, 0xff, 0xff, 0x04, 0x00, 0x00, 0x00,
  0x02, 0x00, 0x00, 0x00, 0x00, 0x3c, 0x00, 0x00, 0xda, 0xa0, 0xff, 0xff,
  0x04, 0x00, 0x00, 0x00, 0x02, 0x00, 0x00, 0x00, 0x00, 0x3c, 0x00, 0x00,
  0x34, 0xd8, 0xfe, 0xff, 0xee, 0xa0, 0xff, 0xff, 0x04, 0x00, 0x00, 0x00,
  0x02, 0x00, 0x00, 0x00, 0x00, 0x3c, 0x00, 0x00, 0x48, 0xd8, 0xfe, 0xff,
  0x4c, 0xd8, 0xfe, 0xff, 0x50, 0xd8, 0xfe, 0xff, 0x54, 0xd8, 0xfe, 0xff,
  0x58, 0xd8, 0xfe, 0xff, 0x5c, 0xd8, 0xfe, 0xff, 0x60, 0xd8, 0xfe, 0xff,
  0x64, 0xd8, 0xfe, 0xff, 0x68, 0xd8, 0xfe, 0xff, 0x6c, 0xd8, 0xfe, 0xff,
  0x70, 0xd8, 0xfe, 0xff, 0x74, 0xd8, 0xfe, 0xff, 0x2e, 0xa1, 0xff, 0xff,
  0x04, 0x00, 0x00, 0x00, 0x02, 0x00, 0x00, 0x00, 0x00, 0x3c, 0x00, 0x00,
  0x3e, 0xa1, 0xff, 0xff, 0x04, 0x00, 0x00, 0x00, 0x02, 0x00, 0x00, 0x00,
  0x00, 0x3c, 0x00, 0x00, 0x98, 0xd8, 0xfe, 0xff, 0x9c, 0xd8, 0xfe, 0xff,
  0xa0, 0xd8, 0xfe, 0xff, 0xa4, 0xd8, 0xfe, 0xff, 0xa8, 0xd8, 0xfe, 0xff,
  0xac, 0xd8, 0xfe, 0xff, 0xb0, 0xd8, 0xfe, 0xff, 0xb4, 0xd8, 0xfe, 0xff,
  0xb8, 0xd8, 0xfe, 0xff, 0xbc, 0xd8, 0xfe, 0xff, 0xc0, 0xd8, 0xfe, 0xff,
  0x7a, 0xa1, 0xff, 0xff, 0x04, 0x00, 0x00, 0x00, 0x04, 0x00, 0x00, 0x00,
  0x01, 0x00, 0x00, 0x00, 0xd4, 0xd8, 0xfe, 0xff, 0xd8, 0xd8, 0xfe, 0xff,
  0x92, 0xa1, 0xff, 0xff, 0x04, 0x00, 0x00, 0x00, 0x0c, 0x00, 0x00, 0x00,
  0x48, 0x31, 0xb8, 0x38, 0x11, 0xb0, 0x95, 0xac, 0x66, 0xb9, 0x41, 0xb6,
  0xf4, 0xd8, 0xfe, 0xff, 0xf8, 0xd8, 0xfe, 0xff, 0xfc, 0xd8, 0xfe, 0xff,
  0xb6, 0xa1, 0xff, 0xff, 0x04, 0x00, 0x00, 0x00, 0x04, 0x00, 0x00, 0x00,
  0x01, 0x00, 0x00, 0x00, 0x10, 0xd9, 0xfe, 0xff, 0x14, 0xd9, 0xfe, 0xff,
  0x18, 0xd9, 0xfe, 0xff, 0x1c, 0xd9, 0xfe, 0xff, 0x20, 0xd9, 0xfe, 0xff,
  0x24, 0xd9, 0xfe, 0xff, 0x28, 0xd9, 0xfe, 0xff, 0x2c, 0xd9, 0xfe, 0xff,
  0xe6, 0xa1, 0xff, 0xff, 0x04, 0x00, 0x00, 0x00, 0x04, 0x00, 0x00, 0x00,
  0x01, 0x00, 0x00, 0x00, 0x40, 0xd9, 0xfe, 0xff, 0x44, 0xd9, 0xfe, 0xff,
  0x48, 0xd9, 0xfe, 0xff, 0x4c, 0xd9, 0xfe, 0xff, 0x50, 0xd9, 0xfe, 0xff,
  0x54, 0xd9, 0xfe, 0xff, 0x58, 0xd9, 0xfe, 0xff, 0x5c, 0xd9, 0xfe, 0xff,
  0x60, 0xd9, 0xfe, 0xff, 0x64, 0xd9, 0xfe, 0xff, 0x68, 0xd9, 0xfe, 0xff,
  0x6c, 0xd9, 0xfe, 0xff, 0x70, 0xd9, 0xfe, 0xff, 0x74, 0xd9, 0xfe, 0xff,
  0x78, 0xd9, 0xfe, 0xff, 0x7c, 0xd9, 0xfe, 0xff, 0x80, 0xd9, 0xfe, 0xff,
  0x84, 0xd9, 0xfe, 0xff, 0x88, 0xd9, 0xfe, 0xff, 0x8c, 0xd9, 0xfe, 0xff,
  0x46, 0xa2, 0xff, 0xff, 0x04, 0x00, 0x00, 0x00, 0x10, 0x00, 0x00, 0x00,
  0x00, 0x00, 0x00, 0x00, 0x00, 0x00, 0x00, 0x00, 0x00, 0x00, 0x00, 0x00,
  0x00, 0x00, 0x00, 0x00, 0xac, 0xd9, 0xfe, 0xff, 0xb0, 0xd9, 0xfe, 0xff,
  0xb4, 0xd9, 0xfe, 0xff, 0xb8, 0xd9, 0xfe, 0xff, 0xbc, 0xd9, 0xfe, 0xff,
  0x76, 0xa2, 0xff, 0xff, 0x04, 0x00, 0x00, 0x00, 0x02, 0x00, 0x00, 0x00,
  0x00, 0x3c, 0x00, 0x00, 0xd0, 0xd9, 0xfe, 0xff, 0xd4, 0xd9, 0xfe, 0xff,
  0x8e, 0xa2, 0xff, 0xff, 0x04, 0x00, 0x00, 0x00, 0x04, 0x00, 0x00, 0x00,
  0x00, 0x00, 0x00, 0x00, 0xe8, 0xd9, 0xfe, 0xff, 0xec, 0xd9, 0xfe, 0xff,
  0xf0, 0xd9, 0xfe, 0xff, 0xf4, 0xd9, 0xfe, 0xff, 0xf8, 0xd9, 0xfe, 0xff,
  0xfc, 0xd9, 0xfe, 0xff, 0x00, 0xda, 0xfe, 0xff, 0x04, 0xda, 0xfe, 0xff,
  0x08, 0xda, 0xfe, 0xff, 0x0c, 0xda, 0xfe, 0xff, 0x10, 0xda, 0xfe, 0xff,
  0x14, 0xda, 0xfe, 0xff, 0x18, 0xda, 0xfe, 0xff, 0x1c, 0xda, 0xfe, 0xff,
  0x20, 0xda, 0xfe, 0xff, 0x24, 0xda, 0xfe, 0xff, 0x28, 0xda, 0xfe, 0xff,
  0x2c, 0xda, 0xfe, 0xff, 0x30, 0xda, 0xfe, 0xff, 0x34, 0xda, 0xfe, 0xff,
  0x38, 0xda, 0xfe, 0xff, 0x3c, 0xda, 0xfe, 0xff, 0x40, 0xda, 0xfe, 0xff,
  0x44, 0xda, 0xfe, 0xff, 0x48, 0xda, 0xfe, 0xff, 0x4c, 0xda, 0xfe, 0xff,
  0x06, 0xa3, 0xff, 0xff, 0x04, 0x00, 0x00, 0x00, 0x04, 0x00, 0x00, 0x00,
  0x01, 0x00, 0x00, 0x00, 0x60, 0xda, 0xfe, 0xff, 0x64, 0xda, 0xfe, 0xff,
  0x68, 0xda, 0xfe, 0xff, 0x22, 0xa3, 0xff, 0xff, 0x04, 0x00, 0x00, 0x00,
  0x60, 0x00, 0x00, 0x00, 0x9d, 0xb9, 0x0a, 0xb1, 0x01, 0x3c, 0x01, 0xbb,
  0x70, 0x3c, 0x45, 0x30, 0xa3, 0xa8, 0x9e, 0xa9, 0x3c, 0x38, 0xea, 0x3f,
  0xf6, 0xb9, 0x3b, 0x40, 0x6f, 0x2f, 0x2c, 0xb7, 0x4d, 0x42, 0xb9, 0x3e,
  0xc6, 0x3c, 0xc2, 0xab, 0x5e, 0xb8, 0x5b, 0x3a, 0x8b, 0x3f, 0xb1, 0x35,
  0x9a, 0x31, 0x5c, 0x40, 0x7e, 0x39, 0xeb, 0x3f, 0x36, 0x40, 0x99, 0x37,
  0x6e, 0x3f, 0x49, 0x40, 0x15, 0x32, 0xcf, 0xb9, 0x35, 0x37, 0x7b, 0x3f,
  0x6c, 0x40, 0x3e, 0x38, 0x85, 0x3d, 0x62, 0xbb, 0x26, 0x40, 0xa2, 0xbd,
  0x60, 0x3c, 0x9c, 0x40, 0x04, 0x3b, 0x7d, 0x3d, 0x7c, 0x37, 0xd9, 0x3e,
  0x40, 0xbd, 0x65, 0x40, 0xd8, 0xda, 0xfe, 0xff, 0xdc, 0xda, 0xfe, 0xff,
  0xe0, 0xda, 0xfe, 0xff, 0xe4, 0xda, 0xfe, 0xff, 0xe8, 0xda, 0xfe, 0xff,
  0xec, 0xda, 0xfe, 0xff, 0xf0, 0xda, 0xfe, 0xff, 0xf4, 0xda, 0xfe, 0xff,
  0xf8, 0xda, 0xfe, 0xff, 0xfc, 0xda, 0xfe, 0xff, 0x00, 0xdb, 0xfe, 0xff,
  0x04, 0xdb, 0xfe, 0xff, 0x08, 0xdb, 0xfe, 0xff, 0x0c, 0xdb, 0xfe, 0xff,
  0x10, 0xdb, 0xfe, 0xff, 0x14, 0xdb, 0xfe, 0xff, 0x18, 0xdb, 0xfe, 0xff,
  0x1c, 0xdb, 0xfe, 0xff, 0x20, 0xdb, 0xfe, 0xff, 0x24, 0xdb, 0xfe, 0xff,
  0x28, 0xdb, 0xfe, 0xff, 0x2c, 0xdb, 0xfe, 0xff, 0x30, 0xdb, 0xfe, 0xff,
  0x34, 0xdb, 0xfe, 0xff, 0x38, 0xdb, 0xfe, 0xff, 0x3c, 0xdb, 0xfe, 0xff,
  0x40, 0xdb, 0xfe, 0xff, 0x44, 0xdb, 0xfe, 0xff, 0x48, 0xdb, 0xfe, 0xff,
  0x4c, 0xdb, 0xfe, 0xff, 0x50, 0xdb, 0xfe, 0xff, 0x54, 0xdb, 0xfe, 0xff,
  0x58, 0xdb, 0xfe, 0xff, 0x12, 0xa4, 0xff, 0xff, 0x04, 0x00, 0x00, 0x00,
  0x02, 0x00, 0x00, 0x00, 0x00, 0x3c, 0x00, 0x00, 0x6c, 0xdb, 0xfe, 0xff,
  0x70, 0xdb, 0xfe, 0xff, 0x74, 0xdb, 0xfe, 0xff, 0x78, 0xdb, 0xfe, 0xff,
  0x7c, 0xdb, 0xfe, 0xff, 0x80, 0xdb, 0xfe, 0xff, 0x84, 0xdb, 0xfe, 0xff,
  0x88, 0xdb, 0xfe, 0xff, 0x8c, 0xdb, 0xfe, 0xff, 0x90, 0xdb, 0xfe, 0xff,
  0x94, 0xdb, 0xfe, 0xff, 0x98, 0xdb, 0xfe, 0xff, 0x9c, 0xdb, 0xfe, 0xff,
  0xa0, 0xdb, 0xfe, 0xff, 0xa4, 0xdb, 0xfe, 0xff, 0xa8, 0xdb, 0xfe, 0xff,
  0xac, 0xdb, 0xfe, 0xff, 0xb0, 0xdb, 0xfe, 0xff, 0xb4, 0xdb, 0xfe, 0xff,
  0xb8, 0xdb, 0xfe, 0xff, 0xbc, 0xdb, 0xfe, 0xff, 0xc0, 0xdb, 0xfe, 0xff,
  0xc4, 0xdb, 0xfe, 0xff, 0xc8, 0xdb, 0xfe, 0xff, 0xcc, 0xdb, 0xfe, 0xff,
  0xd0, 0xdb, 0xfe, 0xff, 0xd4, 0xdb, 0xfe, 0xff, 0xd8, 0xdb, 0xfe, 0xff,
  0xdc, 0xdb, 0xfe, 0xff, 0xe0, 0xdb, 0xfe, 0xff, 0xe4, 0xdb, 0xfe, 0xff,
  0xe8, 0xdb, 0xfe, 0xff, 0xec, 0xdb, 0xfe, 0xff, 0xf0, 0xdb, 0xfe, 0xff,
  0xf4, 0xdb, 0xfe, 0xff, 0xf8, 0xdb, 0xfe, 0xff, 0xfc, 0xdb, 0xfe, 0xff,
  0x00, 0xdc, 0xfe, 0xff, 0x04, 0xdc, 0xfe, 0xff, 0x08, 0xdc, 0xfe, 0xff,
  0x0c, 0xdc, 0xfe, 0xff, 0x10, 0xdc, 0xfe, 0xff, 0x14, 0xdc, 0xfe, 0xff,
  0x18, 0xdc, 0xfe, 0xff, 0x1c, 0xdc, 0xfe, 0xff, 0xd6, 0xa4, 0xff, 0xff,
  0x04, 0x00, 0x00, 0x00, 0x04, 0x00, 0x00, 0x00, 0x01, 0x00, 0x00, 0x00,
  0x30, 0xdc, 0xfe, 0xff, 0x34, 0xdc, 0xfe, 0xff, 0x38, 0xdc, 0xfe, 0xff,
  0xf2, 0xa4, 0xff, 0xff, 0x04, 0x00, 0x00, 0x00, 0x02, 0x00, 0x00, 0x00,
  0x00, 0x3c, 0x00, 0x00, 0x4c, 0xdc, 0xfe, 0xff, 0x50, 0xdc, 0xfe, 0xff,
  0x0a, 0xa5, 0xff, 0xff, 0x04, 0x00, 0x00, 0x00, 0x04, 0x00, 0x00, 0x00,
  0x01, 0x00, 0x00, 0x00, 0x64, 0xdc, 0xfe, 0xff, 0x1e, 0xa5, 0xff, 0xff,
  0x04, 0x00, 0x00, 0x00, 0x04, 0x00, 0x00, 0x00, 0x01, 0x00, 0x00, 0x00,
  0x78, 0xdc, 0xfe, 0xff, 0x7c, 0xdc, 0xfe, 0xff, 0x80, 0xdc, 0xfe, 0xff,
  0x84, 0xdc, 0xfe, 0xff, 0x88, 0xdc, 0xfe, 0xff, 0x8c, 0xdc, 0xfe, 0xff,
  0x90, 0xdc, 0xfe, 0xff, 0x94, 0xdc, 0xfe, 0xff, 0x98, 0xdc, 0xfe, 0xff,
  0x9c, 0xdc, 0xfe, 0xff, 0xa0, 0xdc, 0xfe, 0xff, 0xa4, 0xdc, 0xfe, 0xff,
  0xa8, 0xdc, 0xfe, 0xff, 0xac, 0xdc, 0xfe, 0xff, 0xb0, 0xdc, 0xfe, 0xff,
  0xb4, 0xdc, 0xfe, 0xff, 0xb8, 0xdc, 0xfe, 0xff, 0xbc, 0xdc, 0xfe, 0xff,
  0x76, 0xa5, 0xff, 0xff, 0x04, 0x00, 0x00, 0x00, 0x02, 0x00, 0x00, 0x00,
  0x00, 0x3c, 0x00, 0x00, 0xd0, 0xdc, 0xfe, 0xff, 0xd4, 0xdc, 0xfe, 0xff,
  0xd8, 0xdc, 0xfe, 0xff, 0xdc, 0xdc, 0xfe, 0xff, 0xe0, 0xdc, 0xfe, 0xff,
  0xe4, 0xdc, 0xfe, 0xff, 0xe8, 0xdc, 0xfe, 0xff, 0xec, 0xdc, 0xfe, 0xff,
  0xf0, 0xdc, 0xfe, 0xff, 0xf4, 0xdc, 0xfe, 0xff, 0xf8, 0xdc, 0xfe, 0xff,
  0xfc, 0xdc, 0xfe, 0xff, 0x00, 0xdd, 0xfe, 0xff, 0x04, 0xdd, 0xfe, 0xff,
  0x08, 0xdd, 0xfe, 0xff, 0x0c, 0xdd, 0xfe, 0xff, 0x10, 0xdd, 0xfe, 0xff,
  0x14, 0xdd, 0xfe, 0xff, 0xce, 0xa5, 0xff, 0xff, 0x04, 0x00, 0x00, 0x00,
  0x04, 0x00, 0x00, 0x00, 0x01, 0x00, 0x00, 0x00, 0x28, 0xdd, 0xfe, 0xff,
  0x2c, 0xdd, 0xfe, 0xff, 0x30, 0xdd, 0xfe, 0xff, 0x34, 0xdd, 0xfe, 0xff,
  0x38, 0xdd, 0xfe, 0xff, 0xf2, 0xa5, 0xff, 0xff, 0x04, 0x00, 0x00, 0x00,
  0x04, 0x00, 0x00, 0x00, 0x01, 0x00, 0x00, 0x00, 0x4c, 0xdd, 0xfe, 0xff,
  0x50, 0xdd, 0xfe, 0xff, 0x54, 0xdd, 0xfe, 0xff, 0x58, 0xdd, 0xfe, 0xff,
  0x5c, 0xdd, 0xfe, 0xff, 0x60, 0xdd, 0xfe, 0xff, 0x64, 0xdd, 0xfe, 0xff,
  0x68, 0xdd, 0xfe, 0xff, 0x6c, 0xdd, 0xfe, 0xff, 0x70, 0xdd, 0xfe, 0xff,
  0x74, 0xdd, 0xfe, 0xff, 0x78, 0xdd, 0xfe, 0xff, 0x7c, 0xdd, 0xfe, 0xff,
  0x36, 0xa6, 0xff, 0xff, 0x04, 0x00, 0x00, 0x00, 0x04, 0x00, 0x00, 0x00,
  0x01, 0x00, 0x00, 0x00, 0x90, 0xdd, 0xfe, 0xff, 0x94, 0xdd, 0xfe, 0xff,
  0x98, 0xdd, 0xfe, 0xff, 0x9c, 0xdd, 0xfe, 0xff, 0xa0, 0xdd, 0xfe, 0xff,
  0xa4, 0xdd, 0xfe, 0xff, 0xa8, 0xdd, 0xfe, 0xff, 0xac, 0xdd, 0xfe, 0xff,
  0xb0, 0xdd, 0xfe, 0xff, 0xb4, 0xdd, 0xfe, 0xff, 0xb8, 0xdd, 0xfe, 0xff,
  0xbc, 0xdd, 0xfe, 0xff, 0xc0, 0xdd, 0xfe, 0xff, 0xc4, 0xdd, 0xfe, 0xff,
  0xc8, 0xdd, 0xfe, 0xff, 0xcc, 0xdd, 0xfe, 0xff, 0xd0, 0xdd, 0xfe, 0xff,
  0xd4, 0xdd, 0xfe, 0xff, 0xd8, 0xdd, 0xfe, 0xff, 0xdc, 0xdd, 0xfe, 0xff,
  0xe0, 0xdd, 0xfe, 0xff, 0xe4, 0xdd, 0xfe, 0xff, 0x9e, 0xa6, 0xff, 0xff,
  0x04, 0x00, 0x00, 0x00, 0x04, 0x00, 0x00, 0x00, 0x01, 0x00, 0x00, 0x00,
  0xf8, 0xdd, 0xfe, 0xff, 0xfc, 0xdd, 0xfe, 0xff, 0x00, 0xde, 0xfe, 0xff,
  0x04, 0xde, 0xfe, 0xff, 0x08, 0xde, 0xfe, 0xff, 0x0c, 0xde, 0xfe, 0xff,
  0x10, 0xde, 0xfe, 0xff, 0x14, 0xde, 0xfe, 0xff, 0x18, 0xde, 0xfe, 0xff,
  0x1c, 0xde, 0xfe, 0xff, 0x20, 0xde, 0xfe, 0xff, 0x24, 0xde, 0xfe, 0xff,
  0x28, 0xde, 0xfe, 0xff, 0x2c, 0xde, 0xfe, 0xff, 0x30, 0xde, 0xfe, 0xff,
  0x34, 0xde, 0xfe, 0xff, 0x38, 0xde, 0xfe, 0xff, 0x3c, 0xde, 0xfe, 0xff,
  0x40, 0xde, 0xfe, 0xff, 0x44, 0xde, 0xfe, 0xff, 0x48, 0xde, 0xfe, 0xff,
  0x4c, 0xde, 0xfe, 0xff, 0x50, 0xde, 0xfe, 0xff, 0x54, 0xde, 0xfe, 0xff,
  0x58, 0xde, 0xfe, 0xff, 0x5c, 0xde, 0xfe, 0xff, 0x60, 0xde, 0xfe, 0xff,
  0x64, 0xde, 0xfe, 0xff, 0x68, 0xde, 0xfe, 0xff, 0x6c, 0xde, 0xfe, 0xff,
  0x70, 0xde, 0xfe, 0xff, 0x74, 0xde, 0xfe, 0xff, 0x78, 0xde, 0xfe, 0xff,
  0x7c, 0xde, 0xfe, 0xff, 0x80, 0xde, 0xfe, 0xff, 0x84, 0xde, 0xfe, 0xff,
  0x88, 0xde, 0xfe, 0xff, 0x8c, 0xde, 0xfe, 0xff, 0x90, 0xde, 0xfe, 0xff,
  0x94, 0xde, 0xfe, 0xff, 0x98, 0xde, 0xfe, 0xff, 0x9c, 0xde, 0xfe, 0xff,
  0xa0, 0xde, 0xfe, 0xff, 0xa4, 0xde, 0xfe, 0xff, 0xa8, 0xde, 0xfe, 0xff,
  0xac, 0xde, 0xfe, 0xff, 0xb0, 0xde, 0xfe, 0xff, 0xb4, 0xde, 0xfe, 0xff,
  0xb8, 0xde, 0xfe, 0xff, 0xbc, 0xde, 0xfe, 0xff, 0xc0, 0xde, 0xfe, 0xff,
  0xc4, 0xde, 0xfe, 0xff, 0xc8, 0xde, 0xfe, 0xff, 0xcc, 0xde, 0xfe, 0xff,
  0xd0, 0xde, 0xfe, 0xff, 0xd4, 0xde, 0xfe, 0xff, 0xd8, 0xde, 0xfe, 0xff,
  0xdc, 0xde, 0xfe, 0xff, 0xe0, 0xde, 0xfe, 0xff, 0xe4, 0xde, 0xfe, 0xff,
  0x9e, 0xa7, 0xff, 0xff, 0x04, 0x00, 0x00, 0x00, 0x10, 0x00, 0x00, 0x00,
  0x2c, 0xba, 0x66, 0x36, 0xe8, 0x3d, 0x2f, 0xb6, 0x12, 0x35, 0xf7, 0x3e,
  0x27, 0xb2, 0xc1, 0x3d, 0x04, 0xdf, 0xfe, 0xff, 0x08, 0xdf, 0xfe, 0xff,
  0x0c, 0xdf, 0xfe, 0xff, 0x10, 0xdf, 0xfe, 0xff, 0x14, 0xdf, 0xfe, 0xff,
  0x18, 0xdf, 0xfe, 0xff, 0x1c, 0xdf, 0xfe, 0xff, 0x20, 0xdf, 0xfe, 0xff,
  0x24, 0xdf, 0xfe, 0xff, 0x28, 0xdf, 0xfe, 0xff, 0x2c, 0xdf, 0xfe, 0xff,
  0x30, 0xdf, 0xfe, 0xff, 0x34, 0xdf, 0xfe, 0xff, 0x38, 0xdf, 0xfe, 0xff,
  0x3c, 0xdf, 0xfe, 0xff, 0x40, 0xdf, 0xfe, 0xff, 0x44, 0xdf, 0xfe, 0xff,
  0x48, 0xdf, 0xfe, 0xff, 0x4c, 0xdf, 0xfe, 0xff, 0x50, 0xdf, 0xfe, 0xff,
  0x54, 0xdf, 0xfe, 0xff, 0x58, 0xdf, 0xfe, 0xff, 0x5c, 0xdf, 0xfe, 0xff,
  0x60, 0xdf, 0xfe, 0xff, 0x64, 0xdf, 0xfe, 0xff, 0x68, 0xdf, 0xfe, 0xff,
  0x6c, 0xdf, 0xfe, 0xff, 0x70, 0xdf, 0xfe, 0xff, 0x74, 0xdf, 0xfe, 0xff,
  0x78, 0xdf, 0xfe, 0xff, 0x7c, 0xdf, 0xfe, 0xff, 0x80, 0xdf, 0xfe, 0xff,
  0x84, 0xdf, 0xfe, 0xff, 0x88, 0xdf, 0xfe, 0xff, 0x8c, 0xdf, 0xfe, 0xff,
  0x90, 0xdf, 0xfe, 0xff, 0x94, 0xdf, 0xfe, 0xff, 0x98, 0xdf, 0xfe, 0xff,
  0x9c, 0xdf, 0xfe, 0xff, 0xa0, 0xdf, 0xfe, 0xff, 0xa4, 0xdf, 0xfe, 0xff,
  0xa8, 0xdf, 0xfe, 0xff, 0xac, 0xdf, 0xfe, 0xff, 0xb0, 0xdf, 0xfe, 0xff,
  0xb4, 0xdf, 0xfe, 0xff, 0xb8, 0xdf, 0xfe, 0xff, 0xbc, 0xdf, 0xfe, 0xff,
  0xc0, 0xdf, 0xfe, 0xff, 0xc4, 0xdf, 0xfe, 0xff, 0xc8, 0xdf, 0xfe, 0xff,
  0xcc, 0xdf, 0xfe, 0xff, 0xd0, 0xdf, 0xfe, 0xff, 0xd4, 0xdf, 0xfe, 0xff,
  0xd8, 0xdf, 0xfe, 0xff, 0xdc, 0xdf, 0xfe, 0xff, 0xe0, 0xdf, 0xfe, 0xff,
  0xe4, 0xdf, 0xfe, 0xff, 0xe8, 0xdf, 0xfe, 0xff, 0xec, 0xdf, 0xfe, 0xff,
  0xf0, 0xdf, 0xfe, 0xff, 0xf4, 0xdf, 0xfe, 0xff, 0xf8, 0xdf, 0xfe, 0xff,
  0xfc, 0xdf, 0xfe, 0xff, 0x00, 0xe0, 0xfe, 0xff, 0x04, 0xe0, 0xfe, 0xff,
  0x08, 0xe0, 0xfe, 0xff, 0x0c, 0xe0, 0xfe, 0xff, 0x10, 0xe0, 0xfe, 0xff,
  0x14, 0xe0, 0xfe, 0xff, 0x18, 0xe0, 0xfe, 0xff, 0x1c, 0xe0, 0xfe, 0xff,
  0x20, 0xe0, 0xfe, 0xff, 0x24, 0xe0, 0xfe, 0xff, 0x28, 0xe0, 0xfe, 0xff,
  0x2c, 0xe0, 0xfe, 0xff, 0x30, 0xe0, 0xfe, 0xff, 0x34, 0xe0, 0xfe, 0xff,
  0x38, 0xe0, 0xfe, 0xff, 0x3c, 0xe0, 0xfe, 0xff, 0x40, 0xe0, 0xfe, 0xff,
  0x44, 0xe0, 0xfe, 0xff, 0x48, 0xe0, 0xfe, 0xff, 0x4c, 0xe0, 0xfe, 0xff,
  0x50, 0xe0, 0xfe, 0xff, 0x54, 0xe0, 0xfe, 0xff, 0x58, 0xe0, 0xfe, 0xff,
  0x5c, 0xe0, 0xfe, 0xff, 0x60, 0xe0, 0xfe, 0xff, 0x64, 0xe0, 0xfe, 0xff,
  0x68, 0xe0, 0xfe, 0xff, 0x6c, 0xe0, 0xfe, 0xff, 0x70, 0xe0, 0xfe, 0xff,
  0x74, 0xe0, 0xfe, 0xff, 0x78, 0xe0, 0xfe, 0xff, 0x7c, 0xe0, 0xfe, 0xff,
  0x80, 0xe0, 0xfe, 0xff, 0x84, 0xe0, 0xfe, 0xff, 0x88, 0xe0, 0xfe, 0xff,
  0x8c, 0xe0, 0xfe, 0xff, 0x90, 0xe0, 0xfe, 0xff, 0x94, 0xe0, 0xfe, 0xff,
  0x98, 0xe0, 0xfe, 0xff, 0x9c, 0xe0, 0xfe, 0xff, 0xa0, 0xe0, 0xfe, 0xff,
  0xa4, 0xe0, 0xfe, 0xff, 0xa8, 0xe0, 0xfe, 0xff, 0xac, 0xe0, 0xfe, 0xff,
  0xb0, 0xe0, 0xfe, 0xff, 0xb4, 0xe0, 0xfe, 0xff, 0xb8, 0xe0, 0xfe, 0xff,
  0xbc, 0xe0, 0xfe, 0xff, 0xc0, 0xe0, 0xfe, 0xff, 0xc4, 0xe0, 0xfe, 0xff,
  0xc8, 0xe0, 0xfe, 0xff, 0xcc, 0xe0, 0xfe, 0xff, 0xd0, 0xe0, 0xfe, 0xff,
  0xd4, 0xe0, 0xfe, 0xff, 0xd8, 0xe0, 0xfe, 0xff, 0xdc, 0xe0, 0xfe, 0xff,
  0xe0, 0xe0, 0xfe, 0xff, 0xe4, 0xe0, 0xfe, 0xff, 0x9e, 0xa9, 0xff, 0xff,
  0x04, 0x00, 0x00, 0x00, 0x60, 0x00, 0x00, 0x00, 0x32, 0x38, 0x8a, 0x33,
  0x07, 0xa9, 0xa9, 0x3d, 0x14, 0xbc, 0x8a, 0xba, 0xc2, 0x33, 0x4d, 0x37,
  0xe0, 0x3c, 0x7f, 0x3a, 0x93, 0xb9, 0xbb, 0xbc, 0x00, 0xbe, 0x77, 0x3c,
  0x4f, 0xbb, 0xb7, 0x3b, 0x21, 0xc0, 0xfb, 0xae, 0xf7, 0xbf, 0xe1, 0x3c,
  0xbf, 0xb6, 0x77, 0x39, 0x99, 0x2f, 0xf9, 0xb8, 0xa7, 0x3e, 0x2d, 0xb1,
  0xb9, 0xbb, 0xee, 0x3f, 0x2c, 0xb9, 0x3b, 0x3e, 0x16, 0x3b, 0x2a, 0x2c,
  0xea, 0xae, 0xed, 0x39, 0x3d, 0x34, 0x4c, 0xb8, 0xb7, 0x3c, 0x20, 0xbe,
  0xed, 0xba, 0x45, 0xae, 0x50, 0xbd, 0xaa, 0xad, 0x26, 0x3d, 0x53, 0xb5,
  0x5a, 0xbb, 0x76, 0x35, 0x49, 0xbc, 0xce, 0x3b, 0x0a, 0xaa, 0xff, 0xff,
  0x04, 0x00, 0x00, 0x00, 0x40, 0x00, 0x00, 0x00, 0xde, 0x2b, 0x8d, 0x32,
  0x50, 0x2a, 0x98, 0xaf, 0xa8, 0xaa, 0xb1, 0x31, 0x30, 0x2f, 0x70, 0x2d,
  0xe7, 0x2d, 0xf0, 0x2e, 0xdb, 0xa8, 0xd3, 0x21, 0x73, 0x26, 0x8e, 0x29,
  0x91, 0xac, 0x25, 0x24, 0x52, 0x30, 0x7a, 0x31, 0x17, 0x9f, 0x0e, 0x2b,
  0x79, 0x2a, 0xd7, 0x31, 0x76, 0x2f, 0x7c, 0x32, 0xe1, 0x2d, 0x42, 0x35,
  0x71, 0x32, 0x55, 0x27, 0x8a, 0x24, 0x56, 0x35, 0xa7, 0x34, 0xfa, 0x35,
  0x56, 0xaa, 0xff, 0xff, 0x04, 0x00, 0x00, 0x00, 0x00, 0x04, 0x00, 0x00,
  0x01, 0x9e, 0xa0, 0x34, 0x37, 0x2e, 0x4b, 0x36, 0xa3, 0x33, 0x39, 0xac,
  0x09, 0x35, 0x8c, 0xb3, 0x74, 0x31, 0xb6, 0x9d, 0x4d, 0xb1, 0xd5, 0x28,
  0x40, 0xaf, 0x2b, 0x32, 0xf5, 0x22, 0xd5, 0x32, 0x1f, 0x25, 0x55, 0xa2,
  0xa8, 0xb1, 0x44, 0xab, 0x71, 0xaa, 0x12, 0xb2, 0x03, 0x36, 0x48, 0x35,
  0x26, 0x31, 0x57, 0xaa, 0x20, 0x2f, 0xbe, 0xb0, 0x13, 0xb2, 0x1d, 0x35,
  0xb0, 0xb3, 0x02, 0xab, 0x30, 0xb6, 0x65, 0xb4, 0xb8, 0x16, 0x4c, 0x39,
  0x15, 0xb8, 0xb7, 0x2a, 0x29, 0xb7, 0x0c, 0xa9, 0xdd, 0xb7, 0xb1, 0x2f,
  0x83, 0x38, 0x18, 0xb4, 0xce, 0x36, 0x27, 0x38, 0x0c, 0xa3, 0xbc, 0xb9,
  0x68, 0xb1, 0x74, 0xb0, 0x84, 0xb4, 0xbd, 0x32, 0xd6, 0x33, 0x36, 0x2f,
  0xb9, 0xb6, 0xd9, 0xaa, 0xf1, 0xb6, 0x7c, 0xac, 0x00, 0x2f, 0x61, 0xb2,
  0x60, 0x35, 0x88, 0x27, 0xc4, 0x35, 0x0d, 0xb7, 0x19, 0x34, 0xdd, 0x2c,
  0xd9, 0xac, 0x38, 0xb4, 0x42, 0x28, 0xa4, 0x22, 0x66, 0x36, 0xec, 0xa9,
  0xfd, 0x32, 0xdb, 0xb7, 0xb2, 0xb8, 0xfd, 0xb3, 0xb3, 0xb1, 0x45, 0xa2,
  0xde, 0xad, 0xb1, 0x3a, 0x7f, 0xb4, 0x78, 0x31, 0xa0, 0xae, 0xe6, 0xa1,
  0x47, 0xb2, 0xb0, 0x31, 0xe2, 0x2c, 0x5a, 0x29, 0xd4, 0xb0, 0xbd, 0x32,
  0x4f, 0x36, 0x2a, 0xab, 0xe2, 0xb3, 0xdf, 0x2d, 0x8b, 0xb6, 0x3b, 0xad,
  0xd8, 0xa8, 0x86, 0xaf, 0x20, 0xac, 0x68, 0x34, 0x75, 0xaf, 0x14, 0x35,
  0xec, 0x2c, 0x18, 0xb1, 0xb2, 0x34, 0x2a, 0xb1, 0x44, 0x31, 0x8a, 0xb3,
  0x00, 0xb3, 0xa8, 0x1c, 0xc1, 0x35, 0x75, 0x32, 0x8d, 0x36, 0x4c, 0xb3,
  0x48, 0x2f, 0xf0, 0xb2, 0xe3, 0xb0, 0x24, 0x33, 0xb1, 0x35, 0x90, 0x34,
  0xec, 0x34, 0x08, 0x37, 0x12, 0x35, 0xc4, 0xb0, 0x24, 0xb1, 0x8f, 0x30,
  0x3f, 0xb2, 0x8b, 0xaf, 0x74, 0xab, 0xae, 0xa8, 0x6b, 0xb4, 0x44, 0x32,
  0xe8, 0xa9, 0x55, 0x29, 0x90, 0x2f, 0x80, 0x36, 0x03, 0xac, 0xcd, 0x31,
  0xfc, 0x23, 0x89, 0x30, 0xff, 0x32, 0x61, 0xac, 0x84, 0x2e, 0xd2, 0x2e,
  0x36, 0xa3, 0x68, 0x24, 0xa7, 0xb4, 0x4a, 0x31, 0x3c, 0x28, 0xf7, 0x32,
  0xcb, 0xb5, 0x92, 0xae, 0x99, 0x34, 0xec, 0x33, 0x27, 0x37, 0x68, 0xae,
  0xfa, 0x2f, 0xc5, 0x35, 0xf8, 0x31, 0x82, 0xaf, 0x9c, 0x34, 0x5d, 0xae,
  0xf8, 0xb0, 0xe2, 0xb5, 0x61, 0x34, 0x05, 0x32, 0xc7, 0xb4, 0xd4, 0xb3,
  0x3a, 0xb5, 0xea, 0x32, 0x55, 0xac, 0x5b, 0x30, 0xc5, 0xb3, 0x72, 0xad,
  0x11, 0xaf, 0x60, 0xb4, 0x5e, 0xaa, 0x43, 0xb4, 0x16, 0x32, 0x5b, 0x25,
  0xc2, 0xad, 0x05, 0xad, 0x08, 0xb1, 0x28, 0x9b, 0x2f, 0xb4, 0x0e, 0xa9,
  0x25, 0xb0, 0xb6, 0x31, 0xba, 0x2e, 0xad, 0x30, 0x68, 0x30, 0x92, 0xb4,
  0x77, 0x31, 0x06, 0xb4, 0xed, 0x34, 0x88, 0x33, 0x2f, 0xb2, 0xdd, 0xaf,
  0xbb, 0xba, 0x5e, 0xb5, 0x5b, 0x2f, 0x4d, 0xaf, 0x96, 0xb4, 0xe5, 0x29,
  0xa9, 0xae, 0x97, 0xb5, 0xaf, 0xb0, 0x5d, 0x37, 0x4d, 0xb4, 0xe0, 0xb5,
  0x66, 0xaf, 0x03, 0xae, 0x23, 0xb3, 0xd8, 0x34, 0x1c, 0x34, 0x00, 0x33,
  0x12, 0xb4, 0x40, 0x2a, 0x84, 0xb1, 0xe0, 0xb7, 0xcb, 0x1b, 0xcf, 0x34,
  0x24, 0xab, 0x54, 0xb4, 0x6a, 0x35, 0xf9, 0x2c, 0x5e, 0x20, 0xdb, 0xb1,
  0x29, 0xb4, 0xf6, 0x2e, 0x42, 0xb3, 0x3d, 0x33, 0xfc, 0x26, 0xa3, 0xad,
  0x1a, 0x30, 0x95, 0x33, 0x8f, 0x35, 0x98, 0xb6, 0x4c, 0x34, 0xa2, 0xb5,
  0x32, 0xa5, 0xdc, 0x32, 0x83, 0xb5, 0x28, 0x30, 0x10, 0xa3, 0x0d, 0x30,
  0xee, 0x33, 0x99, 0x2f, 0xc4, 0x34, 0x89, 0xb2, 0x23, 0xb7, 0x68, 0x25,
  0xcb, 0x27, 0x38, 0x31, 0xcc, 0x2d, 0xed, 0xb0, 0x83, 0x35, 0x1d, 0x34,
  0x32, 0x34, 0xbb, 0xb0, 0x30, 0xb1, 0x68, 0x35, 0xb9, 0xb5, 0x60, 0x31,
  0x8e, 0x30, 0xf2, 0x2c, 0xd4, 0xab, 0xd0, 0xb2, 0x3f, 0xac, 0x53, 0x30,
  0x09, 0x2e, 0x3a, 0x30, 0xe6, 0xb4, 0x85, 0x2c, 0xe1, 0x31, 0x0c, 0x9c,
  0x52, 0xb1, 0x12, 0x34, 0xb4, 0x1c, 0x94, 0x34, 0x5a, 0x92, 0x5b, 0x34,
  0x96, 0xb1, 0xc7, 0x2e, 0xfd, 0xb3, 0x42, 0x35, 0x2d, 0xb8, 0x71, 0x37,
  0xc3, 0x35, 0xb6, 0xad, 0x1b, 0x36, 0x0e, 0x34, 0xe4, 0x30, 0xfc, 0x33,
  0x8f, 0xb5, 0xfa, 0xb0, 0x1a, 0xac, 0xe4, 0x33, 0x50, 0x35, 0xc7, 0x29,
  0x04, 0x35, 0x48, 0x29, 0xae, 0x31, 0x30, 0x9c, 0xc9, 0x2b, 0xa7, 0x35,
  0x75, 0x27, 0xb9, 0x36, 0x8f, 0x30, 0x27, 0x34, 0x34, 0xb2, 0xb8, 0xb4,
  0x07, 0xb5, 0xb3, 0x2c, 0xc6, 0xb4, 0x43, 0x27, 0xad, 0x30, 0xec, 0xae,
  0xf5, 0x2d, 0xff, 0x24, 0x2a, 0x30, 0xe7, 0xae, 0xb6, 0x29, 0x48, 0xaa,
  0x28, 0xb5, 0x88, 0x33, 0x09, 0x3a, 0x69, 0xb0, 0x79, 0xad, 0x54, 0xa1,
  0x71, 0xb2, 0x76, 0xb4, 0x0c, 0xb6, 0x0f, 0xa2, 0x04, 0x2a, 0x84, 0x37,
  0x75, 0x21, 0xfb, 0xb1, 0xc7, 0x2c, 0xea, 0xae, 0x69, 0xb1, 0x9d, 0xa7,
  0x07, 0x39, 0x08, 0x34, 0x0c, 0x35, 0xd7, 0x38, 0xf4, 0x34, 0xf6, 0xac,
  0x68, 0xb8, 0xf4, 0x34, 0xa1, 0xae, 0x5f, 0x36, 0xcf, 0xb2, 0x76, 0x2d,
  0xbc, 0x34, 0x50, 0x31, 0x10, 0xb0, 0x61, 0xb1, 0x94, 0x28, 0xea, 0x2e,
  0x88, 0xab, 0xaa, 0x34, 0x09, 0x2d, 0xda, 0x29, 0x45, 0x26, 0xbf, 0x33,
  0x99, 0x23, 0xdb, 0x30, 0xe9, 0xae, 0x9f, 0x34, 0x99, 0x31, 0x2f, 0x35,
  0x8d, 0x35, 0x0b, 0x9c, 0x35, 0xb9, 0x2b, 0x2e, 0x0d, 0x31, 0xf7, 0x39,
  0xf6, 0x29, 0x49, 0xb0, 0x4b, 0x30, 0x01, 0x38, 0x58, 0xb4, 0xd8, 0x2d,
  0x4f, 0x37, 0x8c, 0x23, 0x87, 0x31, 0x34, 0xaf, 0xca, 0x28, 0xc0, 0x2c,
  0xd3, 0xb4, 0x5f, 0xad, 0xbc, 0x31, 0xa6, 0xb1, 0x13, 0xb0, 0x4c, 0xaa,
  0x9f, 0x28, 0x2f, 0xa9, 0xa9, 0x28, 0x7c, 0x34, 0x6b, 0x23, 0xab, 0x30,
  0x7c, 0xb5, 0xb4, 0x31, 0x86, 0x38, 0xcb, 0x30, 0x9d, 0xae, 0x88, 0x28,
  0x33, 0x31, 0x5c, 0x31, 0x3d, 0x36, 0x14, 0xb6, 0x14, 0xb1, 0xa1, 0x36,
  0x31, 0xad, 0x1e, 0xaf, 0xe8, 0x33, 0x10, 0x37, 0x9f, 0x35, 0x88, 0x33,
  0x56, 0x37, 0x3e, 0xa6, 0xe2, 0x26, 0xd0, 0x38, 0x70, 0x2a, 0x55, 0xad,
  0x80, 0xa7, 0x72, 0xb1, 0x67, 0xb2, 0x5d, 0x29, 0xf7, 0x29, 0x56, 0xb0,
  0xa1, 0x2f, 0x8e, 0x26, 0x60, 0x30, 0x25, 0x2f, 0xae, 0x34, 0xf5, 0x1e,
  0x0d, 0xb4, 0x42, 0x31, 0x0d, 0xb1, 0x05, 0xb7, 0x4b, 0x34, 0x06, 0xb2,
  0x94, 0xb0, 0xc2, 0xb2, 0x4e, 0x2e, 0xa4, 0xad, 0x5e, 0x9f, 0xf5, 0x2c,
  0x40, 0xa8, 0x7d, 0xa5, 0x93, 0xb4, 0xb8, 0x31, 0xc8, 0x34, 0xe6, 0x31,
  0x7a, 0xaf, 0xe4, 0x25, 0xfa, 0xb4, 0x66, 0x29, 0x3a, 0xac, 0x49, 0x32,
  0xef, 0x34, 0xa5, 0x39, 0x16, 0xa1, 0x7c, 0x35, 0x2c, 0x37, 0xcc, 0x2a,
  0xfa, 0x9e, 0xd7, 0x33, 0x91, 0x31, 0x6a, 0x35, 0x15, 0x2c, 0x44, 0x37,
  0xa1, 0x28, 0xb4, 0xaf, 0xf9, 0xb4, 0x25, 0x39, 0x51, 0xb0, 0x38, 0x35,
  0x0d, 0xb1, 0xc9, 0x30, 0xf2, 0x36, 0xef, 0x34, 0xfa, 0x32, 0x8a, 0x27,
  0xc2, 0x34, 0xdc, 0x2f, 0x9b, 0x30, 0x6a, 0x34, 0xce, 0x2f, 0x5a, 0xb4,
  0x59, 0xb7, 0xbe, 0x30, 0x5d, 0xb4, 0xfe, 0x31, 0x90, 0x34, 0x37, 0x32,
  0x99, 0x36, 0x50, 0x31, 0x90, 0x36, 0xd1, 0x35, 0x23, 0x20, 0xfc, 0x38,
  0xa6, 0x2a, 0xa4, 0x34, 0xcf, 0x2f, 0xfa, 0xb1, 0x9d, 0xb5, 0x89, 0x33,
  0xae, 0xb3, 0xfd, 0x2f, 0xac, 0xe5, 0xfe, 0xff, 0x0f, 0x00, 0x00, 0x00,
  0x54, 0x4f, 0x43, 0x4f, 0x20, 0x43, 0x6f, 0x6e, 0x76, 0x65, 0x72, 0x74,
  0x65, 0x64, 0x2e, 0x00, 0x01, 0x00, 0x00, 0x00, 0x10, 0x00, 0x00, 0x00,
  0x0c, 0x00, 0x14, 0x00, 0x04, 0x00, 0x08, 0x00, 0x0c, 0x00, 0x10, 0x00,
  0x0c, 0x00, 0x00, 0x00, 0xb0, 0x52, 0x00, 0x00, 0xa4, 0x52, 0x00, 0x00,
  0x98, 0x52, 0x00, 0x00, 0x04, 0x00, 0x00, 0x00, 0xc5, 0x01, 0x00, 0x00,
  0x6c, 0x52, 0x00, 0x00, 0x3c, 0x52, 0x00, 0x00, 0x00, 0x52, 0x00, 0x00,
  0x34, 0x51, 0x00, 0x00, 0x00, 0x51, 0x00, 0x00, 0xc8, 0x50, 0x00, 0x00,
  0xa4, 0x50, 0x00, 0x00, 0x80, 0x50, 0x00, 0x00, 0x48, 0x50, 0x00, 0x00,
  0x04, 0x50, 0x00, 0x00, 0xe0, 0x4f, 0x00, 0x00, 0xbc, 0x4f, 0x00, 0x00,
  0x98, 0x4f, 0x00, 0x00, 0x64, 0x4f, 0x00, 0x00, 0x40, 0x4f, 0x00, 0x00,
  0x0c, 0x4f, 0x00, 0x00, 0xd4, 0x4e, 0x00, 0x00, 0x9c, 0x4e, 0x00, 0x00,
  0x58, 0x4e, 0x00, 0x00, 0x34, 0x4e, 0x00, 0x00, 0x04, 0x4e, 0x00, 0x00,
  0xd0, 0x4d, 0x00, 0x00, 0xac, 0x4d, 0x00, 0x00, 0x88, 0x4d, 0x00, 0x00,
  0x64, 0x4d, 0x00, 0x00, 0x30, 0x4d, 0x00, 0x00, 0xfc, 0x4c, 0x00, 0x00,
  0xcc, 0x4c, 0x00, 0x00, 0xa8, 0x4c, 0x00, 0x00, 0x74, 0x4c, 0x00, 0x00,
  0x3c, 0x4c, 0x00, 0x00, 0x04, 0x4c, 0x00, 0x00, 0xc0, 0x4b, 0x00, 0x00,
  0x9c, 0x4b, 0x00, 0x00, 0x6c, 0x4b, 0x00, 0x00, 0x48, 0x4b, 0x00, 0x00,
  0x24, 0x4b, 0x00, 0x00, 0x00, 0x4b, 0x00, 0x00, 0xdc, 0x4a, 0x00, 0x00,
  0xa8, 0x4a, 0x00, 0x00, 0x74, 0x4a, 0x00, 0x00, 0x44, 0x4a, 0x00, 0x00,
  0x20, 0x4a, 0x00, 0x00, 0xec, 0x49, 0x00, 0x00, 0xb4, 0x49, 0x00, 0x00,
  0x7c, 0x49, 0x00, 0x00, 0x38, 0x49, 0x00, 0x00, 0x14, 0x49, 0x00, 0x00,
  0xe4, 0x48, 0x00, 0x00, 0xc0, 0x48, 0x00, 0x00, 0x9c, 0x48, 0x00, 0x00,
  0x78, 0x48, 0x00, 0x00, 0x54, 0x48, 0x00, 0x00, 0x20, 0x48, 0x00, 0x00,
  0xec, 0x47, 0x00, 0x00, 0xbc, 0x47, 0x00, 0x00, 0x98, 0x47, 0x00, 0x00,
  0x64, 0x47, 0x00, 0x00, 0x2c, 0x47, 0x00, 0x00, 0xf4, 0x46, 0x00, 0x00,
  0xb0, 0x46, 0x00, 0x00, 0x8c, 0x46, 0x00, 0x00, 0x5c, 0x46, 0x00, 0x00,
  0x38, 0x46, 0x00, 0x00, 0x14, 0x46, 0x00, 0x00, 0xf0, 0x45, 0x00, 0x00,
  0xcc, 0x45, 0x00, 0x00, 0x98, 0x45, 0x00, 0x00, 0x64, 0x45, 0x00, 0x00,
  0x34, 0x45, 0x00, 0x00, 0x10, 0x45, 0x00, 0x00, 0xdc, 0x44, 0x00, 0x00,
  0xa4, 0x44, 0x00, 0x00, 0x6c, 0x44, 0x00, 0x00, 0x28, 0x44, 0x00, 0x00,
  0x04, 0x44, 0x00, 0x00, 0xd4, 0x43, 0x00, 0x00, 0xb0, 0x43, 0x00, 0x00,
  0x8c, 0x43, 0x00, 0x00, 0x68, 0x43, 0x00, 0x00, 0x44, 0x43, 0x00, 0x00,
  0x10, 0x43, 0x00, 0x00, 0xdc, 0x42, 0x00, 0x00, 0xac, 0x42, 0x00, 0x00,
  0x88, 0x42, 0x00, 0x00, 0x54, 0x42, 0x00, 0x00, 0x1c, 0x42, 0x00, 0x00,
  0xe4, 0x41, 0x00, 0x00, 0xa0, 0x41, 0x00, 0x00, 0x7c, 0x41, 0x00, 0x00,
  0x4c, 0x41, 0x00, 0x00, 0x28, 0x41, 0x00, 0x00, 0x04, 0x41, 0x00, 0x00,
  0xe0, 0x40, 0x00, 0x00, 0xbc, 0x40, 0x00, 0x00, 0x88, 0x40, 0x00, 0x00,
  0x54, 0x40, 0x00, 0x00, 0x24, 0x40, 0x00, 0x00, 0x00, 0x40, 0x00, 0x00,
  0xcc, 0x3f, 0x00, 0x00, 0x94, 0x3f, 0x00, 0x00, 0x5c, 0x3f, 0x00, 0x00,
  0x18, 0x3f, 0x00, 0x00, 0xf4, 0x3e, 0x00, 0x00, 0xc4, 0x3e, 0x00, 0x00,
  0xa0, 0x3e, 0x00, 0x00, 0x7c, 0x3e, 0x00, 0x00, 0x58, 0x3e, 0x00, 0x00,
  0x34, 0x3e, 0x00, 0x00, 0x00, 0x3e, 0x00, 0x00, 0xcc, 0x3d, 0x00, 0x00,
  0x9c, 0x3d, 0x00, 0x00, 0x78, 0x3d, 0x00, 0x00, 0x44, 0x3d, 0x00, 0x00,
  0x0c, 0x3d, 0x00, 0x00, 0xd4, 0x3c, 0x00, 0x00, 0x90, 0x3c, 0x00, 0x00,
  0x6c, 0x3c, 0x00, 0x00, 0x3c, 0x3c, 0x00, 0x00, 0x18, 0x3c, 0x00, 0x00,
  0xf4, 0x3b, 0x00, 0x00, 0xd0, 0x3b, 0x00, 0x00, 0xac, 0x3b, 0x00, 0x00,
  0x78, 0x3b, 0x00, 0x00, 0x44, 0x3b, 0x00, 0x00, 0x14, 0x3b, 0x00, 0x00,
  0xf0, 0x3a, 0x00, 0x00, 0xbc, 0x3a, 0x00, 0x00, 0x84, 0x3a, 0x00, 0x00,
  0x4c, 0x3a, 0x00, 0x00, 0x08, 0x3a, 0x00, 0x00, 0xe4, 0x39, 0x00, 0x00,
  0xb4, 0x39, 0x00, 0x00, 0x90, 0x39, 0x00, 0x00, 0x6c, 0x39, 0x00, 0x00,
  0x48, 0x39, 0x00, 0x00, 0x24, 0x39, 0x00, 0x00, 0xf0, 0x38, 0x00, 0x00,
  0xbc, 0x38, 0x00, 0x00, 0x8c, 0x38, 0x00, 0x00, 0x68, 0x38, 0x00, 0x00,
  0x34, 0x38, 0x00, 0x00, 0xfc, 0x37, 0x00, 0x00, 0xc4, 0x37, 0x00, 0x00,
  0x80, 0x37, 0x00, 0x00, 0x5c, 0x37, 0x00, 0x00, 0x2c, 0x37, 0x00, 0x00,
  0x08, 0x37, 0x00, 0x00, 0xe4, 0x36, 0x00, 0x00, 0xc0, 0x36, 0x00, 0x00,
  0x9c, 0x36, 0x00, 0x00, 0x68, 0x36, 0x00, 0x00, 0x34, 0x36, 0x00, 0x00,
  0x04, 0x36, 0x00, 0x00, 0xe0, 0x35, 0x00, 0x00, 0xac, 0x35, 0x00, 0x00,
  0x74, 0x35, 0x00, 0x00, 0x3c, 0x35, 0x00, 0x00, 0xf8, 0x34, 0x00, 0x00,
  0xd4, 0x34, 0x00, 0x00, 0xa4, 0x34, 0x00, 0x00, 0x80, 0x34, 0x00, 0x00,
  0x5c, 0x34, 0x00, 0x00, 0x38, 0x34, 0x00, 0x00, 0x14, 0x34, 0x00, 0x00,
  0xe0, 0x33, 0x00, 0x00, 0xac, 0x33, 0x00, 0x00, 0x7c, 0x33, 0x00, 0x00,
  0x58, 0x33, 0x00, 0x00, 0x24, 0x33, 0x00, 0x00, 0xec, 0x32, 0x00, 0x00,
  0xb4, 0x32, 0x00, 0x00, 0x70, 0x32, 0x00, 0x00, 0x4c, 0x32, 0x00, 0x00,
  0x1c, 0x32, 0x00, 0x00, 0xf8, 0x31, 0x00, 0x00, 0xd4, 0x31, 0x00, 0x00,
  0xb0, 0x31, 0x00, 0x00, 0x8c, 0x31, 0x00, 0x00, 0x58, 0x31, 0x00, 0x00,
  0x24, 0x31, 0x00, 0x00, 0xf4, 0x30, 0x00, 0x00, 0xd0, 0x30, 0x00, 0x00,
  0x9c, 0x30, 0x00, 0x00, 0x64, 0x30, 0x00, 0x00, 0x2c, 0x30, 0x00, 0x00,
  0xe8, 0x2f, 0x00, 0x00, 0xc4, 0x2f, 0x00, 0x00, 0x94, 0x2f, 0x00, 0x00,
  0x70, 0x2f, 0x00, 0x00, 0x4c, 0x2f, 0x00, 0x00, 0x28, 0x2f, 0x00, 0x00,
  0x04, 0x2f, 0x00, 0x00, 0xd0, 0x2e, 0x00, 0x00, 0x9c, 0x2e, 0x00, 0x00,
  0x6c, 0x2e, 0x00, 0x00, 0x48, 0x2e, 0x00, 0x00, 0x14, 0x2e, 0x00, 0x00,
  0xdc, 0x2d, 0x00, 0x00, 0xa4, 0x2d, 0x00, 0x00, 0x60, 0x2d, 0x00, 0x00,
  0x3c, 0x2d, 0x00, 0x00, 0x0c, 0x2d, 0x00, 0x00, 0xe8, 0x2c, 0x00, 0x00,
  0xc4, 0x2c, 0x00, 0x00, 0xa0, 0x2c, 0x00, 0x00, 0x7c, 0x2c, 0x00, 0x00,
  0x48, 0x2c, 0x00, 0x00, 0x14, 0x2c, 0x00, 0x00, 0xe4, 0x2b, 0x00, 0x00,
  0xc0, 0x2b, 0x00, 0x00, 0x8c, 0x2b, 0x00, 0x00, 0x54, 0x2b, 0x00, 0x00,
  0x1c, 0x2b, 0x00, 0x00, 0xd8, 0x2a, 0x00, 0x00, 0xb4, 0x2a, 0x00, 0x00,
  0x84, 0x2a, 0x00, 0x00, 0x60, 0x2a, 0x00, 0x00, 0x3c, 0x2a, 0x00, 0x00,
  0x18, 0x2a, 0x00, 0x00, 0xf4, 0x29, 0x00, 0x00, 0xc0, 0x29, 0x00, 0x00,
  0x8c, 0x29, 0x00, 0x00, 0x5c, 0x29, 0x00, 0x00, 0x38, 0x29, 0x00, 0x00,
  0x04, 0x29, 0x00, 0x00, 0xcc, 0x28, 0x00, 0x00, 0x94, 0x28, 0x00, 0x00,
  0x50, 0x28, 0x00, 0x00, 0x2c, 0x28, 0x00, 0x00, 0xfc, 0x27, 0x00, 0x00,
  0xd8, 0x27, 0x00, 0x00, 0xb4, 0x27, 0x00, 0x00, 0x90, 0x27, 0x00, 0x00,
  0x6c, 0x27, 0x00, 0x00, 0x38, 0x27, 0x00, 0x00, 0x04, 0x27, 0x00, 0x00,
  0xd4, 0x26, 0x00, 0x00, 0xb0, 0x26, 0x00, 0x00, 0x7c, 0x26, 0x00, 0x00,
  0x44, 0x26, 0x00, 0x00, 0x0c, 0x26, 0x00, 0x00, 0xc8, 0x25, 0x00, 0x00,
  0xa4, 0x25, 0x00, 0x00, 0x74, 0x25, 0x00, 0x00, 0x50, 0x25, 0x00, 0x00,
  0x2c, 0x25, 0x00, 0x00, 0x08, 0x25, 0x00, 0x00, 0xe4, 0x24, 0x00, 0x00,
  0xb0, 0x24, 0x00, 0x00, 0x7c, 0x24, 0x00, 0x00, 0x4c, 0x24, 0x00, 0x00,
  0x28, 0x24, 0x00, 0x00, 0xf4, 0x23, 0x00, 0x00, 0xbc, 0x23, 0x00, 0x00,
  0x84, 0x23, 0x00, 0x00, 0x40, 0x23, 0x00, 0x00, 0x1c, 0x23, 0x00, 0x00,
  0xec, 0x22, 0x00, 0x00, 0xc8, 0x22, 0x00, 0x00, 0xa4, 0x22, 0x00, 0x00,
  0x80, 0x22, 0x00, 0x00, 0x5c, 0x22, 0x00, 0x00, 0x28, 0x22, 0x00, 0x00,
  0xf4, 0x21, 0x00, 0x00, 0xc4, 0x21, 0x00, 0x00, 0xa0, 0x21, 0x00, 0x00,
  0x6c, 0x21, 0x00, 0x00, 0x34, 0x21, 0x00, 0x00, 0xfc, 0x20, 0x00, 0x00,
  0xb8, 0x20, 0x00, 0x00, 0x94, 0x20, 0x00, 0x00, 0x64, 0x20, 0x00, 0x00,
  0x40, 0x20, 0x00, 0x00, 0x1c, 0x20, 0x00, 0x00, 0xf8, 0x1f, 0x00, 0x00,
  0xd4, 0x1f, 0x00, 0x00, 0xa0, 0x1f, 0x00, 0x00, 0x6c, 0x1f, 0x00, 0x00,
  0x3c, 0x1f, 0x00, 0x00, 0x18, 0x1f, 0x00, 0x00, 0xe4, 0x1e, 0x00, 0x00,
  0xac, 0x1e, 0x00, 0x00, 0x74, 0x1e, 0x00, 0x00, 0x30, 0x1e, 0x00, 0x00,
  0x0c, 0x1e, 0x00, 0x00, 0xdc, 0x1d, 0x00, 0x00, 0xb8, 0x1d, 0x00, 0x00,
  0x94, 0x1d, 0x00, 0x00, 0x70, 0x1d, 0x00, 0x00, 0x4c, 0x1d, 0x00, 0x00,
  0x18, 0x1d, 0x00, 0x00, 0xe4, 0x1c, 0x00, 0x00, 0xb4, 0x1c, 0x00, 0x00,
  0x90, 0x1c, 0x00, 0x00, 0x5c, 0x1c, 0x00, 0x00, 0x24, 0x1c, 0x00, 0x00,
  0xec, 0x1b, 0x00, 0x00, 0xa8, 0x1b, 0x00, 0x00, 0x84, 0x1b, 0x00, 0x00,
  0x54, 0x1b, 0x00, 0x00, 0x30, 0x1b, 0x00, 0x00, 0x0c, 0x1b, 0x00, 0x00,
  0xe8, 0x1a, 0x00, 0x00, 0xc4, 0x1a, 0x00, 0x00, 0x90, 0x1a, 0x00, 0x00,
  0x5c, 0x1a, 0x00, 0x00, 0x2c, 0x1a, 0x00, 0x00, 0x08, 0x1a, 0x00, 0x00,
  0xd4, 0x19, 0x00, 0x00, 0x9c, 0x19, 0x00, 0x00, 0x64, 0x19, 0x00, 0x00,
  0x20, 0x19, 0x00, 0x00, 0xfc, 0x18, 0x00, 0x00, 0xcc, 0x18, 0x00, 0x00,
  0xa8, 0x18, 0x00, 0x00, 0x84, 0x18, 0x00, 0x00, 0x60, 0x18, 0x00, 0x00,
  0x3c, 0x18, 0x00, 0x00, 0x08, 0x18, 0x00, 0x00, 0xd4, 0x17, 0x00, 0x00,
  0xa4, 0x17, 0x00, 0x00, 0x80, 0x17, 0x00, 0x00, 0x4c, 0x17, 0x00, 0x00,
  0x14, 0x17, 0x00, 0x00, 0xdc, 0x16, 0x00, 0x00, 0x98, 0x16, 0x00, 0x00,
  0x74, 0x16, 0x00, 0x00, 0x44, 0x16, 0x00, 0x00, 0x20, 0x16, 0x00, 0x00,
  0xfc, 0x15, 0x00, 0x00, 0xd8, 0x15, 0x00, 0x00, 0xb4, 0x15, 0x00, 0x00,
  0x80, 0x15, 0x00, 0x00, 0x4c, 0x15, 0x00, 0x00, 0x1c, 0x15, 0x00, 0x00,
  0xf8, 0x14, 0x00, 0x00, 0xc4, 0x14, 0x00, 0x00, 0x8c, 0x14, 0x00, 0x00,
  0x54, 0x14, 0x00, 0x00, 0x10, 0x14, 0x00, 0x00, 0xec, 0x13, 0x00, 0x00,
  0xbc, 0x13, 0x00, 0x00, 0x98, 0x13, 0x00, 0x00, 0x74, 0x13, 0x00, 0x00,
  0x50, 0x13, 0x00, 0x00, 0x2c, 0x13, 0x00, 0x00, 0xf8, 0x12, 0x00, 0x00,
  0xc4, 0x12, 0x00, 0x00, 0x94, 0x12, 0x00, 0x00, 0x70, 0x12, 0x00, 0x00,
  0x3c, 0x12, 0x00, 0x00, 0x04, 0x12, 0x00, 0x00, 0xcc, 0x11, 0x00, 0x00,
  0x88, 0x11, 0x00, 0x00, 0x64, 0x11, 0x00, 0x00, 0x34, 0x11, 0x00, 0x00,
  0x10, 0x11, 0x00, 0x00, 0xec, 0x10, 0x00, 0x00, 0xc8, 0x10, 0x00, 0x00,
  0xa4, 0x10, 0x00, 0x00, 0x70, 0x10, 0x00, 0x00, 0x3c, 0x10, 0x00, 0x00,
  0x0c, 0x10, 0x00, 0x00, 0xe8, 0x0f, 0x00, 0x00, 0xb4, 0x0f, 0x00, 0x00,
  0x7c, 0x0f, 0x00, 0x00, 0x44, 0x0f, 0x00, 0x00, 0x00, 0x0f, 0x00, 0x00,
  0xdc, 0x0e, 0x00, 0x00, 0xac, 0x0e, 0x00, 0x00, 0x88, 0x0e, 0x00, 0x00,
  0x64, 0x0e, 0x00, 0x00, 0x40, 0x0e, 0x00, 0x00, 0x1c, 0x0e, 0x00, 0x00,
  0xe8, 0x0d, 0x00, 0x00, 0xb4, 0x0d, 0x00, 0x00, 0x84, 0x0d, 0x00, 0x00,
  0x60, 0x0d, 0x00, 0x00, 0x2c, 0x0d, 0x00, 0x00, 0xf4, 0x0c, 0x00, 0x00,
  0xbc, 0x0c, 0x00, 0x00, 0x78, 0x0c, 0x00, 0x00, 0x54, 0x0c, 0x00, 0x00,
  0x24, 0x0c, 0x00, 0x00, 0x00, 0x0c, 0x00, 0x00, 0xdc, 0x0b, 0x00, 0x00,
  0xb8, 0x0b, 0x00, 0x00, 0x94, 0x0b, 0x00, 0x00, 0x60, 0x0b, 0x00, 0x00,
  0x2c, 0x0b, 0x00, 0x00, 0xfc, 0x0a, 0x00, 0x00, 0xd8, 0x0a, 0x00, 0x00,
  0xa4, 0x0a, 0x00, 0x00, 0x6c, 0x0a, 0x00, 0x00, 0x34, 0x0a, 0x00, 0x00,
  0xf0, 0x09, 0x00, 0x00, 0xcc, 0x09, 0x00, 0x00, 0x9c, 0x09, 0x00, 0x00,
  0x78, 0x09, 0x00, 0x00, 0x54, 0x09, 0x00, 0x00, 0x30, 0x09, 0x00, 0x00,
  0x0c, 0x09, 0x00, 0x00, 0xd8, 0x08, 0x00, 0x00, 0xa4, 0x08, 0x00, 0x00,
  0x74, 0x08, 0x00, 0x00, 0x50, 0x08, 0x00, 0x00, 0x1c, 0x08, 0x00, 0x00,
  0xe4, 0x07, 0x00, 0x00, 0xac, 0x07, 0x00, 0x00, 0x68, 0x07, 0x00, 0x00,
  0x44, 0x07, 0x00, 0x00, 0x14, 0x07, 0x00, 0x00, 0xf0, 0x06, 0x00, 0x00,
  0xcc, 0x06, 0x00, 0x00, 0xa8, 0x06, 0x00, 0x00, 0x84, 0x06, 0x00, 0x00,
  0x50, 0x06, 0x00, 0x00, 0x1c, 0x06, 0x00, 0x00, 0xec, 0x05, 0x00, 0x00,
  0xc8, 0x05, 0x00, 0x00, 0x94, 0x05, 0x00, 0x00, 0x5c, 0x05, 0x00, 0x00,
  0x24, 0x05, 0x00, 0x00, 0xe0, 0x04, 0x00, 0x00, 0xbc, 0x04, 0x00, 0x00,
  0x8c, 0x04, 0x00, 0x00, 0x68, 0x04, 0x00, 0x00, 0x44, 0x04, 0x00, 0x00,
  0x20, 0x04, 0x00, 0x00, 0xfc, 0x03, 0x00, 0x00, 0xc8, 0x03, 0x00, 0x00,
  0x94, 0x03, 0x00, 0x00, 0x64, 0x03, 0x00, 0x00, 0x40, 0x03, 0x00, 0x00,
  0x0c, 0x03, 0x00, 0x00, 0xd4, 0x02, 0x00, 0x00, 0x9c, 0x02, 0x00, 0x00,
  0x58, 0x02, 0x00, 0x00, 0x34, 0x02, 0x00, 0x00, 0x04, 0x02, 0x00, 0x00,
  0xe0, 0x01, 0x00, 0x00, 0xbc, 0x01, 0x00, 0x00, 0x98, 0x01, 0x00, 0x00,
  0x74, 0x01, 0x00, 0x00, 0x40, 0x01, 0x00, 0x00, 0x0c, 0x01, 0x00, 0x00,
  0xdc, 0x00, 0x00, 0x00, 0xb8, 0x00, 0x00, 0x00, 0x84, 0x00, 0x00, 0x00,
  0x60, 0x00, 0x00, 0x00, 0x3c, 0x00, 0x00, 0x00, 0x04, 0x00, 0x00, 0x00,
  0x1a, 0xb5, 0xff, 0xff, 0x00, 0x00, 0x00, 0x08, 0x02, 0x00, 0x00, 0x00,
  0x18, 0x00, 0x00, 0x00, 0x0c, 0x00, 0x00, 0x00, 0x04, 0x00, 0x00, 0x00,
  0x1c, 0xed, 0xfe, 0xff, 0x01, 0x00, 0x00, 0x00, 0x64, 0x02, 0x00, 0x00,
  0x03, 0x00, 0x00, 0x00, 0x03, 0x01, 0x00, 0x00, 0x72, 0x02, 0x00, 0x00,
  0x85, 0x02, 0x00, 0x00, 0xe6, 0xb4, 0xff, 0xff, 0x07, 0x00, 0x00, 0x00,
  0x10, 0x00, 0x00, 0x00, 0x04, 0x00, 0x00, 0x00, 0x01, 0x00, 0x00, 0x00,
  0x85, 0x02, 0x00, 0x00, 0x01, 0x00, 0x00, 0x00, 0x03, 0x00, 0x00, 0x00,
  0x06, 0xb5, 0xff, 0xff, 0x07, 0x00, 0x00, 0x00, 0x10, 0x00, 0x00, 0x00,
  0x04, 0x00, 0x00, 0x00, 0x01, 0x00, 0x00, 0x00, 0x72, 0x02, 0x00, 0x00,
  0x01, 0x00, 0x00, 0x00, 0x02, 0x00, 0x00, 0x00, 0x8e, 0xb5, 0xff, 0xff,
  0x00, 0x00, 0x00, 0x15, 0x04, 0x00, 0x00, 0x00, 0x18, 0x00, 0x00, 0x00,
  0x0c, 0x00, 0x00, 0x00, 0x04, 0x00, 0x00, 0x00, 0x90, 0xed, 0xfe, 0xff,
  0x01, 0x00, 0x00, 0x00, 0x03, 0x01, 0x00, 0x00, 0x02, 0x00, 0x00, 0x00,
  0x9f, 0x01, 0x00, 0x00, 0x62, 0x01, 0x00, 0x00, 0x56, 0xb5, 0xff, 0xff,
  0x05, 0x00, 0x00, 0x00, 0x10, 0x00, 0x00, 0x00, 0x04, 0x00, 0x00, 0x00,
  0x01, 0x00, 0x00, 0x00, 0x9f, 0x01, 0x00, 0x00, 0x01, 0x00, 0x00, 0x00,
  0x41, 0x00, 0x00, 0x00, 0x92, 0xb9, 0xff, 0xff, 0x00, 0x00, 0x00, 0x0b,
  0x18, 0x00, 0x00, 0x00, 0x0c, 0x00, 0x00, 0x00, 0x04, 0x00, 0x00, 0x00,
  0xdc, 0xed, 0xfe, 0xff, 0x01, 0x00, 0x00, 0x00, 0x41, 0x00, 0x00, 0x00,
  0x02, 0x00, 0x00, 0x00, 0x01, 0x01, 0x00, 0x00, 0x02, 0x01, 0x00, 0x00,
  0x0a, 0xb6, 0xff, 0xff, 0x00, 0x00, 0x00, 0x15, 0x04, 0x00, 0x00, 0x00,
  0x18, 0x00, 0x00, 0x00, 0x0c, 0x00, 0x00, 0x00, 0x04, 0x00, 0x00, 0x00,
  0x0c, 0xee, 0xfe, 0xff, 0x01, 0x00, 0x00, 0x00, 0x01, 0x01, 0x00, 0x00,
  0x02, 0x00, 0x00, 0x00, 0x3f, 0x00, 0x00, 0x00, 0x60, 0x01, 0x00, 0x00,
  0x3a, 0xb6, 0xff, 0xff, 0x00, 0x00, 0x00, 0x15, 0x04, 0x00, 0x00, 0x00,
  0x18, 0x00, 0x00, 0x00, 0x0c, 0x00, 0x00, 0x00, 0x04, 0x00, 0x00, 0x00,
  0x3c, 0xee, 0xfe, 0xff, 0x01, 0x00, 0x00, 0x00, 0x02, 0x01, 0x00, 0x00,
  0x02, 0x00, 0x00, 0x00, 0x61, 0x01, 0x00, 0x00, 0x9e, 0x01, 0x00, 0x00,
  0x02, 0xb6, 0xff, 0xff, 0x03, 0x00, 0x00, 0x00, 0x10, 0x00, 0x00, 0x00,
  0x04, 0x00, 0x00, 0x00, 0x01, 0x00, 0x00, 0x00, 0x60, 0x01, 0x00, 0x00,
  0x01, 0x00, 0x00, 0x00, 0x40, 0x00, 0x00, 0x00, 0x22, 0xb6, 0xff, 0xff,
  0x03, 0x00, 0x00, 0x00, 0x10, 0x00, 0x00, 0x00, 0x04, 0x00, 0x00, 0x00,
  0x01, 0x00, 0x00, 0x00, 0x62, 0x01, 0x00, 0x00, 0x01, 0x00, 0x00, 0x00,
  0x27, 0x02, 0x00, 0x00, 0x42, 0xb6, 0xff, 0xff, 0x05, 0x00, 0x00, 0x00,
  0x10, 0x00, 0x00, 0x00, 0x04, 0x00, 0x00, 0x00, 0x01, 0x00, 0x00, 0x00,
  0x9e, 0x01, 0x00, 0x00, 0x01, 0x00, 0x00, 0x00, 0x25, 0x02, 0x00, 0x00,
  0x62, 0xb6, 0xff, 0xff, 0x03, 0x00, 0x00, 0x00, 0x10, 0x00, 0x00, 0x00,
  0x04, 0x00, 0x00, 0x00, 0x01, 0x00, 0x00, 0x00, 0x61, 0x01, 0x00, 0x00,
  0x01, 0x00, 0x00, 0x00, 0x24, 0x02, 0x00, 0x00, 0x9e, 0xba, 0xff, 0xff,
  0x00, 0x00, 0x00, 0x0b, 0x18, 0x00, 0x00, 0x00, 0x0c, 0x00, 0x00, 0x00,
  0x04, 0x00, 0x00, 0x00, 0xe8, 0xee, 0xfe, 0xff, 0x01, 0x00, 0x00, 0x00,
  0x40, 0x00, 0x00, 0x00, 0x02, 0x00, 0x00, 0x00, 0x26, 0x02, 0x00, 0x00,
  0x82, 0x02, 0x00, 0x00, 0xae, 0xb6, 0xff, 0xff, 0x07, 0x00, 0x00, 0x00,
  0x10, 0x00, 0x00, 0x00, 0x04, 0x00, 0x00, 0x00, 0x01, 0x00, 0x00, 0x00,
  0x82, 0x02, 0x00, 0x00, 0x01, 0x00, 0x00, 0x00, 0xa3, 0x00, 0x00, 0x00,
  0x36, 0xb7, 0xff, 0xff, 0x00, 0x00, 0x00, 0x23, 0x06, 0x00, 0x00, 0x00,
  0x28, 0x00, 0x00, 0x00, 0x10, 0x00, 0x00, 0x00, 0x04, 0x00, 0x00, 0x00,
  0xee, 0xb7, 0xff, 0xff, 0x04, 0x00, 0x00, 0x00, 0x04, 0x00, 0x00, 0x00,
  0x24, 0x02, 0x00, 0x00, 0x25, 0x02, 0x00, 0x00, 0x26, 0x02, 0x00, 0x00,
  0x27, 0x02, 0x00, 0x00, 0x02, 0x00, 0x00, 0x00, 0xa2, 0x00, 0x00, 0x00,
  0x5e, 0x00, 0x00, 0x00, 0x76, 0xb7, 0xff, 0xff, 0x00, 0x00, 0x00, 0x08,
  0x02, 0x00, 0x00, 0x00, 0x18, 0x00, 0x00, 0x00, 0x0c, 0x00, 0x00, 0x00,
  0x04, 0x00, 0x00, 0x00, 0x78, 0xef, 0xfe, 0xff, 0x01, 0x00, 0x00, 0x00,
  0x5e, 0x00, 0x00, 0x00, 0x03, 0x00, 0x00, 0x00, 0xbc, 0x01, 0x00, 0x00,
  0x7f, 0x02, 0x00, 0x00, 0x6f, 0x02, 0x00, 0x00, 0xaa, 0xb7, 0xff, 0xff,
  0x00, 0x00, 0x00, 0x0a, 0x01, 0x00, 0x00, 0x00, 0x1c, 0x00, 0x00, 0x00,
  0x10, 0x00, 0x00, 0x00, 0x04, 0x00, 0x00, 0x00, 0x62, 0xb8, 0xff, 0xff,
  0x01, 0x00, 0x00, 0x00, 0x01, 0x00, 0x00, 0x00, 0xbc, 0x01, 0x00, 0x00,
  0x02, 0x00, 0x00, 0x00, 0x5d, 0x02, 0x00, 0x00, 0x00, 0x01, 0x00, 0x00,
  0xde, 0xb7, 0xff, 0xff, 0x00, 0x00, 0x00, 0x15, 0x04, 0x00, 0x00, 0x00,
  0x18, 0x00, 0x00, 0x00, 0x0c, 0x00, 0x00, 0x00, 0x04, 0x00, 0x00, 0x00,
  0xe0, 0xef, 0xfe, 0xff, 0x01, 0x00, 0x00, 0x00, 0x00, 0x01, 0x00, 0x00,
  0x02, 0x00, 0x00, 0x00, 0x9d, 0x01, 0x00, 0x00, 0x5f, 0x01, 0x00, 0x00,
  0xa6, 0xb7, 0xff, 0xff, 0x05, 0x00, 0x00, 0x00, 0x10, 0x00, 0x00, 0x00,
  0x04, 0x00, 0x00, 0x00, 0x01, 0x00, 0x00, 0x00, 0x9d, 0x01, 0x00, 0x00,
  0x01, 0x00, 0x00, 0x00, 0x3f, 0x00, 0x00, 0x00, 0xe2, 0xbb, 0xff, 0xff,
  0x00, 0x00, 0x00, 0x0b, 0x18, 0x00, 0x00, 0x00, 0x0c, 0x00, 0x00, 0x00,
  0x04, 0x00, 0x00, 0x00, 0x2c, 0xf0, 0xfe, 0xff, 0x01, 0x00, 0x00, 0x00,
  0x3f, 0x00, 0x00, 0x00, 0x02, 0x00, 0x00, 0x00, 0xfe, 0x00, 0x00, 0x00,
  0xff, 0x00, 0x00, 0x00, 0x5a, 0xb8, 0xff, 0xff, 0x00, 0x00, 0x00, 0x15,
  0x04, 0x00, 0x00, 0x00, 0x18, 0x00, 0x00, 0x00, 0x0c, 0x00, 0x00, 0x00,
  0x04, 0x00, 0x00, 0x00, 0x5c, 0xf0, 0xfe, 0xff, 0x01, 0x00, 0x00, 0x00,
  0xfe, 0x00, 0x00, 0x00, 0x02, 0x00, 0x00, 0x00, 0x3c, 0x00, 0x00, 0x00,
  0x5d, 0x01, 0x00, 0x00, 0x8a, 0xb8, 0xff, 0xff, 0x00, 0x00, 0x00, 0x15,
  0x04, 0x00, 0x00, 0x00, 0x18, 0x00, 0x00, 0x00, 0x0c, 0x00, 0x00, 0x00,
  0x04, 0x00, 0x00, 0x00, 0x8c, 0xf0, 0xfe, 0xff, 0x01, 0x00, 0x00, 0x00,
  0xff, 0x00, 0x00, 0x00, 0x02, 0x00, 0x00, 0x00, 0x5e, 0x01, 0x00, 0x00,
  0x9c, 0x01, 0x00, 0x00, 0x52, 0xb8, 0xff, 0xff, 0x03, 0x00, 0x00, 0x00,
  0x10, 0x00, 0x00, 0x00, 0x04, 0x00, 0x00, 0x00, 0x01, 0x00, 0x00, 0x00,
  0x5d, 0x01, 0x00, 0x00, 0x01, 0x00, 0x00, 0x00, 0x3e, 0x00, 0x00, 0x00,
  0x72, 0xb8, 0xff, 0xff, 0x03, 0x00, 0x00, 0x00, 0x10, 0x00, 0x00, 0x00,
  0x04, 0x00, 0x00, 0x00, 0x01, 0x00, 0x00, 0x00, 0x5f, 0x01, 0x00, 0x00,
  0x01, 0x00, 0x00, 0x00, 0x23, 0x02, 0x00, 0x00, 0x92, 0xb8, 0xff, 0xff,
  0x05, 0x00, 0x00, 0x00, 0x10, 0x00, 0x00, 0x00, 0x04, 0x00, 0x00, 0x00,
  0x01, 0x00, 0x00, 0x00, 0x9c, 0x01, 0x00, 0x00, 0x01, 0x00, 0x00, 0x00,
  0x21, 0x02, 0x00, 0x00, 0xb2, 0xb8, 0xff, 0xff, 0x03, 0x00, 0x00, 0x00,
  0x10, 0x00, 0x00, 0x00, 0x04, 0x00, 0x00, 0x00, 0x01, 0x00, 0x00, 0x00,
  0x5e, 0x01, 0x00, 0x00, 0x01, 0x00, 0x00, 0x00, 0x20, 0x02, 0x00, 0x00,
  0xee, 0xbc, 0xff, 0xff, 0x00, 0x00, 0x00, 0x0b, 0x18, 0x00, 0x00, 0x00,
  0x0c, 0x00, 0x00, 0x00, 0x04, 0x00, 0x00, 0x00, 0x38, 0xf1, 0xfe, 0xff,
  0x01, 0x00, 0x00, 0x00, 0x3e, 0x00, 0x00, 0x00, 0x02, 0x00, 0x00, 0x00,
  0x22, 0x02, 0x00, 0x00, 0x8a, 0x02, 0x00, 0x00, 0xfe, 0xb8, 0xff, 0xff,
  0x07, 0x00, 0x00, 0x00, 0x10, 0x00, 0x00, 0x00, 0x04, 0x00, 0x00, 0x00,
  0x01, 0x00, 0x00, 0x00, 0x8a, 0x02, 0x00, 0x00, 0x01, 0x00, 0x00, 0x00,
  0xa1, 0x00, 0x00, 0x00, 0x86, 0xb9, 0xff, 0xff, 0x00, 0x00, 0x00, 0x23,
  0x06, 0x00, 0x00, 0x00, 0x28, 0x00, 0x00, 0x00, 0x10, 0x00, 0x00, 0x00,
  0x04, 0x00, 0x00, 0x00, 0x3e, 0xba, 0xff, 0xff, 0x04, 0x00, 0x00, 0x00,
  0x04, 0x00, 0x00, 0x00, 0x20, 0x02, 0x00, 0x00, 0x21, 0x02, 0x00, 0x00,
  0x22, 0x02, 0x00, 0x00, 0x23, 0x02, 0x00, 0x00, 0x02, 0x00, 0x00, 0x00,
  0xa0, 0x00, 0x00, 0x00, 0x5d, 0x00, 0x00, 0x00, 0xc6, 0xb9, 0xff, 0xff,
  0x00, 0x00, 0x00, 0x08, 0x02, 0x00, 0x00, 0x00, 0x18, 0x00, 0x00, 0x00,
  0x0c, 0x00, 0x00, 0x00, 0x04, 0x00, 0x00, 0x00, 0xc8, 0xf1, 0xfe, 0xff,
  0x01, 0x00, 0x00, 0x00, 0x5d, 0x00, 0x00, 0x00, 0x03, 0x00, 0x00, 0x00,
  0xbb, 0x01, 0x00, 0x00, 0x7f, 0x02, 0x00, 0x00, 0x6f, 0x02, 0x00, 0x00,
  0xfa, 0xb9, 0xff, 0xff, 0x00, 0x00, 0x00, 0x0a, 0x01, 0x00, 0x00, 0x00,
  0x1c, 0x00, 0x00, 0x00, 0x10, 0x00, 0x00, 0x00, 0x04, 0x00, 0x00, 0x00,
  0xb2, 0xba, 0xff, 0xff, 0x01, 0x00, 0x00, 0x00, 0x01, 0x00, 0x00, 0x00,
  0xbb, 0x01, 0x00, 0x00, 0x02, 0x00, 0x00, 0x00, 0x5c, 0x02, 0x00, 0x00,
  0xfc, 0x00, 0x00, 0x00, 0x2e, 0xba, 0xff, 0xff, 0x00, 0x00, 0x00, 0x15,
  0x04, 0x00, 0x00, 0x00, 0x18, 0x00, 0x00, 0x00, 0x0c, 0x00, 0x00, 0x00,
  0x04, 0x00, 0x00, 0x00, 0x30, 0xf2, 0xfe, 0xff, 0x01, 0x00, 0x00, 0x00,
  0xfc, 0x00, 0x00, 0x00, 0x02, 0x00, 0x00, 0x00, 0x9a, 0x01, 0x00, 0x00,
  0x5b, 0x01, 0x00, 0x00, 0xf6, 0xb9, 0xff, 0xff, 0x05, 0x00, 0x00, 0x00,
  0x10, 0x00, 0x00, 0x00, 0x04, 0x00, 0x00, 0x00, 0x01, 0x00, 0x00, 0x00,
  0x9a, 0x01, 0x00, 0x00, 0x01, 0x00, 0x00, 0x00, 0x3c, 0x00, 0x00, 0x00,
  0x32, 0xbe, 0xff, 0xff, 0x00, 0x00, 0x00, 0x0b, 0x18, 0x00, 0x00, 0x00,
  0x0c, 0x00, 0x00, 0x00, 0x04, 0x00, 0x00, 0x00, 0x7c, 0xf2, 0xfe, 0xff,
  0x01, 0x00, 0x00, 0x00, 0x3c, 0x00, 0x00, 0x00, 0x02, 0x00, 0x00, 0x00,
  0xfa, 0x00, 0x00, 0x00, 0xfb, 0x00, 0x00, 0x00, 0xaa, 0xba, 0xff, 0xff,
  0x00, 0x00, 0x00, 0x15, 0x04, 0x00, 0x00, 0x00, 0x18, 0x00, 0x00, 0x00,
  0x0c, 0x00, 0x00, 0x00, 0x04, 0x00, 0x00, 0x00, 0xac, 0xf2, 0xfe, 0xff,
  0x01, 0x00, 0x00, 0x00, 0xfa, 0x00, 0x00, 0x00, 0x02, 0x00, 0x00, 0x00,
  0x3a, 0x00, 0x00, 0x00, 0x59, 0x01, 0x00, 0x00, 0xda, 0xba, 0xff, 0xff,
  0x00, 0x00, 0x00, 0x15, 0x04, 0x00, 0x00, 0x00, 0x18, 0x00, 0x00, 0x00,
  0x0c, 0x00, 0x00, 0x00, 0x04, 0x00, 0x00, 0x00, 0xdc, 0xf2, 0xfe, 0xff,
  0x01, 0x00, 0x00, 0x00, 0xfb, 0x00, 0x00, 0x00, 0x02, 0x00, 0x00, 0x00,
  0x5a, 0x01, 0x00, 0x00, 0x99, 0x01, 0x00, 0x00, 0xa2, 0xba, 0xff, 0xff,
  0x03, 0x00, 0x00, 0x00, 0x10, 0x00, 0x00, 0x00, 0x04, 0x00, 0x00, 0x00,
  0x01, 0x00, 0x00, 0x00, 0x59, 0x01, 0x00, 0x00, 0x01, 0x00, 0x00, 0x00,
  0x3b, 0x00, 0x00, 0x00, 0xc2, 0xba, 0xff, 0xff, 0x03, 0x00, 0x00, 0x00,
  0x10, 0x00, 0x00, 0x00, 0x04, 0x00, 0x00, 0x00, 0x01, 0x00, 0x00, 0x00,
  0x5b, 0x01, 0x00, 0x00, 0x01, 0x00, 0x00, 0x00, 0x1b, 0x02, 0x00, 0x00,
  0xe2, 0xba, 0xff, 0xff, 0x05, 0x00, 0x00, 0x00, 0x10, 0x00, 0x00, 0x00,
  0x04, 0x00, 0x00, 0x00, 0x01, 0x00, 0x00, 0x00, 0x99, 0x01, 0x00, 0x00,
  0x01, 0x00, 0x00, 0x00, 0x19, 0x02, 0x00, 0x00, 0x02, 0xbb, 0xff, 0xff,
  0x03, 0x00, 0x00, 0x00, 0x10, 0x00, 0x00, 0x00, 0x04, 0x00, 0x00, 0x00,
  0x01, 0x00, 0x00, 0x00, 0x5a, 0x01, 0x00, 0x00, 0x01, 0x00, 0x00, 0x00,
  0x18, 0x02, 0x00, 0x00, 0x3e, 0xbf, 0xff, 0xff, 0x00, 0x00, 0x00, 0x0b,
  0x18, 0x00, 0x00, 0x00, 0x0c, 0x00, 0x00, 0x00, 0x04, 0x00, 0x00, 0x00,
  0x88, 0xf3, 0xfe, 0xff, 0x01, 0x00, 0x00, 0x00, 0x3b, 0x00, 0x00, 0x00,
  0x02, 0x00, 0x00, 0x00, 0x1a, 0x02, 0x00, 0x00, 0x7d, 0x02, 0x00, 0x00,
  0x4e, 0xbb, 0xff, 0xff, 0x07, 0x00, 0x00, 0x00, 0x10, 0x00, 0x00, 0x00,
  0x04, 0x00, 0x00, 0x00, 0x01, 0x00, 0x00, 0x00, 0x7d, 0x02, 0x00, 0x00,
  0x01, 0x00, 0x00, 0x00, 0x9e, 0x00, 0x00, 0x00, 0xd6, 0xbb, 0xff, 0xff,
  0x00, 0x00, 0x00, 0x23, 0x06, 0x00, 0x00, 0x00, 0x28, 0x00, 0x00, 0x00,
  0x10, 0x00, 0x00, 0x00, 0x04, 0x00, 0x00, 0x00, 0x8e, 0xbc, 0xff, 0xff,
  0x04, 0x00, 0x00, 0x00, 0x04, 0x00, 0x00, 0x00, 0x18, 0x02, 0x00, 0x00,
  0x19, 0x02, 0x00, 0x00, 0x1a, 0x02, 0x00, 0x00, 0x1b, 0x02, 0x00, 0x00,
  0x02, 0x00, 0x00, 0x00, 0x9d, 0x00, 0x00, 0x00, 0x5b, 0x00, 0x00, 0x00,
  0x16, 0xbc, 0xff, 0xff, 0x00, 0x00, 0x00, 0x08, 0x02, 0x00, 0x00, 0x00,
  0x18, 0x00, 0x00, 0x00, 0x0c, 0x00, 0x00, 0x00, 0x04, 0x00, 0x00, 0x00,
  0x18, 0xf4, 0xfe, 0xff, 0x01, 0x00, 0x00, 0x00, 0x5b, 0x00, 0x00, 0x00,
  0x03, 0x00, 0x00, 0x00, 0xb9, 0x01, 0x00, 0x00, 0x7f, 0x02, 0x00, 0x00,
  0x6f, 0x02, 0x00, 0x00, 0x4a, 0xbc, 0xff, 0xff, 0x00, 0x00, 0x00, 0x0a,
  0x01, 0x00, 0x00, 0x00, 0x1c, 0x00, 0x00, 0x00, 0x10, 0x00, 0x00, 0x00,
  0x04, 0x00, 0x00, 0x00, 0x02, 0xbd, 0xff, 0xff, 0x01, 0x00, 0x00, 0x00,
  0x01, 0x00, 0x00, 0x00, 0xb9, 0x01, 0x00, 0x00, 0x02, 0x00, 0x00, 0x00,
  0x5a, 0x02, 0x00, 0x00, 0xf9, 0x00, 0x00, 0x00, 0x7e, 0xbc, 0xff, 0xff,
  0x00, 0x00, 0x00, 0x15, 0x04, 0x00, 0x00, 0x00, 0x18, 0x00, 0x00, 0x00,
  0x0c, 0x00, 0x00, 0x00, 0x04, 0x00, 0x00, 0x00, 0x80, 0xf4, 0xfe, 0xff,
  0x01, 0x00, 0x00, 0x00, 0xf9, 0x00, 0x00, 0x00, 0x02, 0x00, 0x00, 0x00,
  0x98, 0x01, 0x00, 0x00, 0x58, 0x01, 0x00, 0x00, 0x46, 0xbc, 0xff, 0xff,
  0x05, 0x00, 0x00, 0x00, 0x10, 0x00, 0x00, 0x00, 0x04, 0x00, 0x00, 0x00,
  0x01, 0x00, 0x00, 0x00, 0x98, 0x01, 0x00, 0x00, 0x01, 0x00, 0x00, 0x00,
  0x3a, 0x00, 0x00, 0x00, 0x82, 0xc0, 0xff, 0xff, 0x00, 0x00, 0x00, 0x0b,
  0x18, 0x00, 0x00, 0x00, 0x0c, 0x00, 0x00, 0x00, 0x04, 0x00, 0x00, 0x00,
  0xcc, 0xf4, 0xfe, 0xff, 0x01, 0x00, 0x00, 0x00, 0x3a, 0x00, 0x00, 0x00,
  0x02, 0x00, 0x00, 0x00, 0xf7, 0x00, 0x00, 0x00, 0xf8, 0x00, 0x00, 0x00,
  0xfa, 0xbc, 0xff, 0xff, 0x00, 0x00, 0x00, 0x15, 0x04, 0x00, 0x00, 0x00,
  0x18, 0x00, 0x00, 0x00, 0x0c, 0x00, 0x00, 0x00, 0x04, 0x00, 0x00, 0x00,
  0xfc, 0xf4, 0xfe, 0xff, 0x01, 0x00, 0x00, 0x00, 0xf7, 0x00, 0x00, 0x00,
  0x02, 0x00, 0x00, 0x00, 0x38, 0x00, 0x00, 0x00, 0x56, 0x01, 0x00, 0x00,
  0x2a, 0xbd, 0xff, 0xff, 0x00, 0x00, 0x00, 0x15, 0x04, 0x00, 0x00, 0x00,
  0x18, 0x00, 0x00, 0x00, 0x0c, 0x00, 0x00, 0x00, 0x04, 0x00, 0x00, 0x00,
  0x2c, 0xf5, 0xfe, 0xff, 0x01, 0x00, 0x00, 0x00, 0xf8, 0x00, 0x00, 0x00,
  0x02, 0x00, 0x00, 0x00, 0x57, 0x01, 0x00, 0x00, 0x97, 0x01, 0x00, 0x00,
  0xf2, 0xbc, 0xff, 0xff, 0x03, 0x00, 0x00, 0x00, 0x10, 0x00, 0x00, 0x00,
  0x04, 0x00, 0x00, 0x00, 0x01, 0x00, 0x00, 0x00, 0x56, 0x01, 0x00, 0x00,
  0x01, 0x00, 0x00, 0x00, 0x39, 0x00, 0x00, 0x00, 0x12, 0xbd, 0xff, 0xff,
  0x03, 0x00, 0x00, 0x00, 0x10, 0x00, 0x00, 0x00, 0x04, 0x00, 0x00, 0x00,
  0x01, 0x00, 0x00, 0x00, 0x58, 0x01, 0x00, 0x00, 0x01, 0x00, 0x00, 0x00,
  0x17, 0x02, 0x00, 0x00, 0x32, 0xbd, 0xff, 0xff, 0x05, 0x00, 0x00, 0x00,
  0x10, 0x00, 0x00, 0x00, 0x04, 0x00, 0x00, 0x00, 0x01, 0x00, 0x00, 0x00,
  0x97, 0x01, 0x00, 0x00, 0x01, 0x00, 0x00, 0x00, 0x15, 0x02, 0x00, 0x00,
  0x52, 0xbd, 0xff, 0xff, 0x03, 0x00, 0x00, 0x00, 0x10, 0x00, 0x00, 0x00,
  0x04, 0x00, 0x00, 0x00, 0x01, 0x00, 0x00, 0x00, 0x57, 0x01, 0x00, 0x00,
  0x01, 0x00, 0x00, 0x00, 0x14, 0x02, 0x00, 0x00, 0x8e, 0xc1, 0xff, 0xff,
  0x00, 0x00, 0x00, 0x0b, 0x18, 0x00, 0x00, 0x00, 0x0c, 0x00, 0x00, 0x00,
  0x04, 0x00, 0x00, 0x00, 0xd8, 0xf5, 0xfe, 0xff, 0x01, 0x00, 0x00, 0x00,
  0x39, 0x00, 0x00, 0x00, 0x02, 0x00, 0x00, 0x00, 0x16, 0x02, 0x00, 0x00,
  0x83, 0x02, 0x00, 0x00, 0x9e, 0xbd, 0xff, 0xff, 0x07, 0x00, 0x00, 0x00,
  0x10, 0x00, 0x00, 0x00, 0x04, 0x00, 0x00, 0x00, 0x01, 0x00, 0x00, 0x00,
  0x83, 0x02, 0x00, 0x00, 0x01, 0x00, 0x00, 0x00, 0x9c, 0x00, 0x00, 0x00,
  0x26, 0xbe, 0xff, 0xff, 0x00, 0x00, 0x00, 0x23, 0x06, 0x00, 0x00, 0x00,
  0x28, 0x00, 0x00, 0x00, 0x10, 0x00, 0x00, 0x00, 0x04, 0x00, 0x00, 0x00,
  0xde, 0xbe, 0xff, 0xff, 0x04, 0x00, 0x00, 0x00, 0x04, 0x00, 0x00, 0x00,
  0x14, 0x02, 0x00, 0x00, 0x15, 0x02, 0x00, 0x00, 0x16, 0x02, 0x00, 0x00,
  0x17, 0x02, 0x00, 0x00, 0x02, 0x00, 0x00, 0x00, 0x9b, 0x00, 0x00, 0x00,
  0x5a, 0x00, 0x00, 0x00, 0x66, 0xbe, 0xff, 0xff, 0x00, 0x00, 0x00, 0x08,
  0x02, 0x00, 0x00, 0x00, 0x18, 0x00, 0x00, 0x00, 0x0c, 0x00, 0x00, 0x00,
  0x04, 0x00, 0x00, 0x00, 0x68, 0xf6, 0xfe, 0xff, 0x01, 0x00, 0x00, 0x00,
  0x5a, 0x00, 0x00, 0x00, 0x03, 0x00, 0x00, 0x00, 0xb8, 0x01, 0x00, 0x00,
  0x7f, 0x02, 0x00, 0x00, 0x6f, 0x02, 0x00, 0x00, 0x9a, 0xbe, 0xff, 0xff,
  0x00, 0x00, 0x00, 0x0a, 0x01, 0x00, 0x00, 0x00, 0x1c, 0x00, 0x00, 0x00,
  0x10, 0x00, 0x00, 0x00, 0x04, 0x00, 0x00, 0x00, 0x52, 0xbf, 0xff, 0xff,
  0x01, 0x00, 0x00, 0x00, 0x01, 0x00, 0x00, 0x00, 0xb8, 0x01, 0x00, 0x00,
  0x02, 0x00, 0x00, 0x00, 0x59, 0x02, 0x00, 0x00, 0xf6, 0x00, 0x00, 0x00,
  0xce, 0xbe, 0xff, 0xff, 0x00, 0x00, 0x00, 0x15, 0x04, 0x00, 0x00, 0x00,
  0x18, 0x00, 0x00, 0x00, 0x0c, 0x00, 0x00, 0x00, 0x04, 0x00, 0x00, 0x00,
  0xd0, 0xf6, 0xfe, 0xff, 0x01, 0x00, 0x00, 0x00, 0xf6, 0x00, 0x00, 0x00,
  0x02, 0x00, 0x00, 0x00, 0x96, 0x01, 0x00, 0x00, 0x55, 0x01, 0x00, 0x00,
  0x96, 0xbe, 0xff, 0xff, 0x05, 0x00, 0x00, 0x00, 0x10, 0x00, 0x00, 0x00,
  0x04, 0x00, 0x00, 0x00, 0x01, 0x00, 0x00, 0x00, 0x96, 0x01, 0x00, 0x00,
  0x01, 0x00, 0x00, 0x00, 0x38, 0x00, 0x00, 0x00, 0xd2, 0xc2, 0xff, 0xff,
  0x00, 0x00, 0x00, 0x0b, 0x18, 0x00, 0x00, 0x00, 0x0c, 0x00, 0x00, 0x00,
  0x04, 0x00, 0x00, 0x00, 0x1c, 0xf7, 0xfe, 0xff, 0x01, 0x00, 0x00, 0x00,
  0x38, 0x00, 0x00, 0x00, 0x02, 0x00, 0x00, 0x00, 0xf4, 0x00, 0x00, 0x00,
  0xf5, 0x00, 0x00, 0x00, 0x4a, 0xbf, 0xff, 0xff, 0x00, 0x00, 0x00, 0x15,
  0x04, 0x00, 0x00, 0x00, 0x18, 0x00, 0x00, 0x00, 0x0c, 0x00, 0x00, 0x00,
  0x04, 0x00, 0x00, 0x00, 0x4c, 0xf7, 0xfe, 0xff, 0x01, 0x00, 0x00, 0x00,
  0xf4, 0x00, 0x00, 0x00, 0x02, 0x00, 0x00, 0x00, 0x36, 0x00, 0x00, 0x00,
  0x53, 0x01, 0x00, 0x00, 0x7a, 0xbf, 0xff, 0xff, 0x00, 0x00, 0x00, 0x15,
  0x04, 0x00, 0x00, 0x00, 0x18, 0x00, 0x00, 0x00, 0x0c, 0x00, 0x00, 0x00,
  0x04, 0x00, 0x00, 0x00, 0x7c, 0xf7, 0xfe, 0xff, 0x01, 0x00, 0x00, 0x00,
  0xf5, 0x00, 0x00, 0x00, 0x02, 0x00, 0x00, 0x00, 0x54, 0x01, 0x00, 0x00,
  0x95, 0x01, 0x00, 0x00, 0x42, 0xbf, 0xff, 0xff, 0x03, 0x00, 0x00, 0x00,
  0x10, 0x00, 0x00, 0x00, 0x04, 0x00, 0x00, 0x00, 0x01, 0x00, 0x00, 0x00,
  0x53, 0x01, 0x00, 0x00, 0x01, 0x00, 0x00, 0x00, 0x37, 0x00, 0x00, 0x00,
  0x62, 0xbf, 0xff, 0xff, 0x03, 0x00, 0x00, 0x00, 0x10, 0x00, 0x00, 0x00,
  0x04, 0x00, 0x00, 0x00, 0x01, 0x00, 0x00, 0x00, 0x55, 0x01, 0x00, 0x00,
  0x01, 0x00, 0x00, 0x00, 0x13, 0x02, 0x00, 0x00, 0x82, 0xbf, 0xff, 0xff,
  0x05, 0x00, 0x00, 0x00, 0x10, 0x00, 0x00, 0x00, 0x04, 0x00, 0x00, 0x00,
  0x01, 0x00, 0x00, 0x00, 0x95, 0x01, 0x00, 0x00, 0x01, 0x00, 0x00, 0x00,
  0x11, 0x02, 0x00, 0x00, 0xa2, 0xbf, 0xff, 0xff, 0x03, 0x00, 0x00, 0x00,
  0x10, 0x00, 0x00, 0x00, 0x04, 0x00, 0x00, 0x00, 0x01, 0x00, 0x00, 0x00,
  0x54, 0x01, 0x00, 0x00, 0x01, 0x00, 0x00, 0x00, 0x10, 0x02, 0x00, 0x00,
  0xde, 0xc3, 0xff, 0xff, 0x00, 0x00, 0x00, 0x0b, 0x18, 0x00, 0x00, 0x00,
  0x0c, 0x00, 0x00, 0x00, 0x04, 0x00, 0x00, 0x00, 0x28, 0xf8, 0xfe, 0xff,
  0x01, 0x00, 0x00, 0x00, 0x37, 0x00, 0x00, 0x00, 0x02, 0x00, 0x00, 0x00,
  0x12, 0x02, 0x00, 0x00, 0x67, 0x02, 0x00, 0x00, 0xee, 0xbf, 0xff, 0xff,
  0x07, 0x00, 0x00, 0x00, 0x10, 0x00, 0x00, 0x00, 0x04, 0x00, 0x00, 0x00,
  0x01, 0x00, 0x00, 0x00, 0x67, 0x02, 0x00, 0x00, 0x01, 0x00, 0x00, 0x00,
  0x9a, 0x00, 0x00, 0x00, 0x76, 0xc0, 0xff, 0xff, 0x00, 0x00, 0x00, 0x23,
  0x06, 0x00, 0x00, 0x00, 0x28, 0x00, 0x00, 0x00, 0x10, 0x00, 0x00, 0x00,
  0x04, 0x00, 0x00, 0x00, 0x2e, 0xc1, 0xff, 0xff, 0x04, 0x00, 0x00, 0x00,
  0x04, 0x00, 0x00, 0x00, 0x10, 0x02, 0x00, 0x00, 0x11, 0x02, 0x00, 0x00,
  0x12, 0x02, 0x00, 0x00, 0x13, 0x02, 0x00, 0x00, 0x02, 0x00, 0x00, 0x00,
  0x99, 0x00, 0x00, 0x00, 0x59, 0x00, 0x00, 0x00, 0xb6, 0xc0, 0xff, 0xff,
  0x00, 0x00, 0x00, 0x08, 0x02, 0x00, 0x00, 0x00, 0x18, 0x00, 0x00, 0x00,
  0x0c, 0x00, 0x00, 0x00, 0x04, 0x00, 0x00, 0x00, 0xb8, 0xf8, 0xfe, 0xff,
  0x01, 0x00, 0x00, 0x00, 0x59, 0x00, 0x00, 0x00, 0x03, 0x00, 0x00, 0x00,
  0xb7, 0x01, 0x00, 0x00, 0x7f, 0x02, 0x00, 0x00, 0x6f, 0x02, 0x00, 0x00,
  0xea, 0xc0, 0xff, 0xff, 0x00, 0x00, 0x00, 0x0a, 0x01, 0x00, 0x00, 0x00,
  0x1c, 0x00, 0x00, 0x00, 0x10, 0x00, 0x00, 0x00, 0x04, 0x00, 0x00, 0x00,
  0xa2, 0xc1, 0xff, 0xff, 0x01, 0x00, 0x00, 0x00, 0x01, 0x00, 0x00, 0x00,
  0xb7, 0x01, 0x00, 0x00, 0x02, 0x00, 0x00, 0x00, 0x58, 0x02, 0x00, 0x00,
  0xf3, 0x00, 0x00, 0x00, 0x1e, 0xc1, 0xff, 0xff, 0x00, 0x00, 0x00, 0x15,
  0x04, 0x00, 0x00, 0x00, 0x18, 0x00, 0x00, 0x00, 0x0c, 0x00, 0x00, 0x00,
  0x04, 0x00, 0x00, 0x00, 0x20, 0xf9, 0xfe, 0xff, 0x01, 0x00, 0x00, 0x00,
  0xf3, 0x00, 0x00, 0x00, 0x02, 0x00, 0x00, 0x00, 0x94, 0x01, 0x00, 0x00,
  0x52, 0x01, 0x00, 0x00, 0xe6, 0xc0, 0xff, 0xff, 0x05, 0x00, 0x00, 0x00,
  0x10, 0x00, 0x00, 0x00, 0x04, 0x00, 0x00, 0x00, 0x01, 0x00, 0x00, 0x00,
  0x94, 0x01, 0x00, 0x00, 0x01, 0x00, 0x00, 0x00, 0x36, 0x00, 0x00, 0x00,
  0x22, 0xc5, 0xff, 0xff, 0x00, 0x00, 0x00, 0x0b, 0x18, 0x00, 0x00, 0x00,
  0x0c, 0x00, 0x00, 0x00, 0x04, 0x00, 0x00, 0x00, 0x6c, 0xf9, 0xfe, 0xff,
  0x01, 0x00, 0x00, 0x00, 0x36, 0x00, 0x00, 0x00, 0x02, 0x00, 0x00, 0x00,
  0xf0, 0x00, 0x00, 0x00, 0xf1, 0x00, 0x00, 0x00, 0x9a, 0xc1, 0xff, 0xff,
  0x00, 0x00, 0x00, 0x15, 0x04, 0x00, 0x00, 0x00, 0x18, 0x00, 0x00, 0x00,
  0x0c, 0x00, 0x00, 0x00, 0x04, 0x00, 0x00, 0x00, 0x9c, 0xf9, 0xfe, 0xff,
  0x01, 0x00, 0x00, 0x00, 0xf0, 0x00, 0x00, 0x00, 0x02, 0x00, 0x00, 0x00,
  0x34, 0x00, 0x00, 0x00, 0x4f, 0x01, 0x00, 0x00, 0xca, 0xc1, 0xff, 0xff,
  0x00, 0x00, 0x00, 0x15, 0x04, 0x00, 0x00, 0x00, 0x18, 0x00, 0x00, 0x00,
  0x0c, 0x00, 0x00, 0x00, 0x04, 0x00, 0x00, 0x00, 0xcc, 0xf9, 0xfe, 0xff,
  0x01, 0x00, 0x00, 0x00, 0xf1, 0x00, 0x00, 0x00, 0x02, 0x00, 0x00, 0x00,
  0x50, 0x01, 0x00, 0x00, 0x93, 0x01, 0x00, 0x00, 0x92, 0xc1, 0xff, 0xff,
  0x03, 0x00, 0x00, 0x00, 0x10, 0x00, 0x00, 0x00, 0x04, 0x00, 0x00, 0x00,
  0x01, 0x00, 0x00, 0x00, 0x4f, 0x01, 0x00, 0x00, 0x01, 0x00, 0x00, 0x00,
  0x35, 0x00, 0x00, 0x00, 0xb2, 0xc1, 0xff, 0xff, 0x03, 0x00, 0x00, 0x00,
  0x10, 0x00, 0x00, 0x00, 0x04, 0x00, 0x00, 0x00, 0x01, 0x00, 0x00, 0x00,
  0x52, 0x01, 0x00, 0x00, 0x01, 0x00, 0x00, 0x00, 0x0f, 0x02, 0x00, 0x00,
  0xd2, 0xc1, 0xff, 0xff, 0x05, 0x00, 0x00, 0x00, 0x10, 0x00, 0x00, 0x00,
  0x04, 0x00, 0x00, 0x00, 0x01, 0x00, 0x00, 0x00, 0x93, 0x01, 0x00, 0x00,
  0x01, 0x00, 0x00, 0x00, 0x0d, 0x02, 0x00, 0x00, 0xf2, 0xc1, 0xff, 0xff,
  0x03, 0x00, 0x00, 0x00, 0x10, 0x00, 0x00, 0x00, 0x04, 0x00, 0x00, 0x00,
  0x01, 0x00, 0x00, 0x00, 0x50, 0x01, 0x00, 0x00, 0x01, 0x00, 0x00, 0x00,
  0x0c, 0x02, 0x00, 0x00, 0x2e, 0xc6, 0xff, 0xff, 0x00, 0x00, 0x00, 0x0b,
  0x18, 0x00, 0x00, 0x00, 0x0c, 0x00, 0x00, 0x00, 0x04, 0x00, 0x00, 0x00,
  0x78, 0xfa, 0xfe, 0xff, 0x01, 0x00, 0x00, 0x00, 0x35, 0x00, 0x00, 0x00,
  0x02, 0x00, 0x00, 0x00, 0x0e, 0x02, 0x00, 0x00, 0x6b, 0x02, 0x00, 0x00,
  0x3e, 0xc2, 0xff, 0xff, 0x07, 0x00, 0x00, 0x00, 0x10, 0x00, 0x00, 0x00,
  0x04, 0x00, 0x00, 0x00, 0x01, 0x00, 0x00, 0x00, 0x6b, 0x02, 0x00, 0x00,
  0x01, 0x00, 0x00, 0x00, 0x98, 0x00, 0x00, 0x00, 0xc6, 0xc2, 0xff, 0xff,
  0x00, 0x00, 0x00, 0x23, 0x06, 0x00, 0x00, 0x00, 0x28, 0x00, 0x00, 0x00,
  0x10, 0x00, 0x00, 0x00, 0x04, 0x00, 0x00, 0x00, 0x7e, 0xc3, 0xff, 0xff,
  0x04, 0x00, 0x00, 0x00, 0x04, 0x00, 0x00, 0x00, 0x0c, 0x02, 0x00, 0x00,
  0x0d, 0x02, 0x00, 0x00, 0x0e, 0x02, 0x00, 0x00, 0x0f, 0x02, 0x00, 0x00,
  0x02, 0x00, 0x00, 0x00, 0x96, 0x00, 0x00, 0x00, 0x58, 0x00, 0x00, 0x00,
  0x06, 0xc3, 0xff, 0xff, 0x00, 0x00, 0x00, 0x08, 0x02, 0x00, 0x00, 0x00,
  0x18, 0x00, 0x00, 0x00, 0x0c, 0x00, 0x00, 0x00, 0x04, 0x00, 0x00, 0x00,
  0x08, 0xfb, 0xfe, 0xff, 0x01, 0x00, 0x00, 0x00, 0x58, 0x00, 0x00, 0x00,
  0x03, 0x00, 0x00, 0x00, 0xb6, 0x01, 0x00, 0x00, 0x7f, 0x02, 0x00, 0x00,
  0x6f, 0x02, 0x00, 0x00, 0x3a, 0xc3, 0xff, 0xff, 0x00, 0x00, 0x00, 0x0a,
  0x01, 0x00, 0x00, 0x00, 0x1c, 0x00, 0x00, 0x00, 0x10, 0x00, 0x00, 0x00,
  0x04, 0x00, 0x00, 0x00, 0xf2, 0xc3, 0xff, 0xff, 0x01, 0x00, 0x00, 0x00,
  0x01, 0x00, 0x00, 0x00, 0xb6, 0x01, 0x00, 0x00, 0x02, 0x00, 0x00, 0x00,
  0x57, 0x02, 0x00, 0x00, 0xef, 0x00, 0x00, 0x00, 0x6e, 0xc3, 0xff, 0xff,
  0x00, 0x00, 0x00, 0x15, 0x04, 0x00, 0x00, 0x00, 0x18, 0x00, 0x00, 0x00,
  0x0c, 0x00, 0x00, 0x00, 0x04, 0x00, 0x00, 0x00, 0x70, 0xfb, 0xfe, 0xff,
  0x01, 0x00, 0x00, 0x00, 0xef, 0x00, 0x00, 0x00, 0x02, 0x00, 0x00, 0x00,
  0x92, 0x01, 0x00, 0x00, 0x4e, 0x01, 0x00, 0x00, 0x36, 0xc3, 0xff, 0xff,
  0x05, 0x00, 0x00, 0x00, 0x10, 0x00, 0x00, 0x00, 0x04, 0x00, 0x00, 0x00,
  0x01, 0x00, 0x00, 0x00, 0x92, 0x01, 0x00, 0x00, 0x01, 0x00, 0x00, 0x00,
  0x34, 0x00, 0x00, 0x00, 0x72, 0xc7, 0xff, 0xff, 0x00, 0x00, 0x00, 0x0b,
  0x18, 0x00, 0x00, 0x00, 0x0c, 0x00, 0x00, 0x00, 0x04, 0x00, 0x00, 0x00,
  0xbc, 0xfb, 0xfe, 0xff, 0x01, 0x00, 0x00, 0x00, 0x34, 0x00, 0x00, 0x00,
  0x02, 0x00, 0x00, 0x00, 0xed, 0x00, 0x00, 0x00, 0xee, 0x00, 0x00, 0x00,
  0xea, 0xc3, 0xff, 0xff, 0x00, 0x00, 0x00, 0x15, 0x04, 0x00, 0x00, 0x00,
  0x18, 0x00, 0x00, 0x00, 0x0c, 0x00, 0x00, 0x00, 0x04, 0x00, 0x00, 0x00,
  0xec, 0xfb, 0xfe, 0xff, 0x01, 0x00, 0x00, 0x00, 0xed, 0x00, 0x00, 0x00,
  0x02, 0x00, 0x00, 0x00, 0x31, 0x00, 0x00, 0x00, 0x4c, 0x01, 0x00, 0x00,
  0x1a, 0xc4, 0xff, 0xff, 0x00, 0x00, 0x00, 0x15, 0x04, 0x00, 0x00, 0x00,
  0x18, 0x00, 0x00, 0x00, 0x0c, 0x00, 0x00, 0x00, 0x04, 0x00, 0x00, 0x00,
  0x1c, 0xfc, 0xfe, 0xff, 0x01, 0x00, 0x00, 0x00, 0xee, 0x00, 0x00, 0x00,
  0x02, 0x00, 0x00, 0x00, 0x4d, 0x01, 0x00, 0x00, 0x91, 0x01, 0x00, 0x00,
  0xe2, 0xc3, 0xff, 0xff, 0x03, 0x00, 0x00, 0x00, 0x10, 0x00, 0x00, 0x00,
  0x04, 0x00, 0x00, 0x00, 0x01, 0x00, 0x00, 0x00, 0x4c, 0x01, 0x00, 0x00,
  0x01, 0x00, 0x00, 0x00, 0x33, 0x00, 0x00, 0x00, 0x02, 0xc4, 0xff, 0xff,
  0x03, 0x00, 0x00, 0x00, 0x10, 0x00, 0x00, 0x00, 0x04, 0x00, 0x00, 0x00,
  0x01, 0x00, 0x00, 0x00, 0x4e, 0x01, 0x00, 0x00, 0x01, 0x00, 0x00, 0x00,
  0x0b, 0x02, 0x00, 0x00, 0x22, 0xc4, 0xff, 0xff, 0x05, 0x00, 0x00, 0x00,
  0x10, 0x00, 0x00, 0x00, 0x04, 0x00, 0x00, 0x00, 0x01, 0x00, 0x00, 0x00,
  0x91, 0x01, 0x00, 0x00, 0x01, 0x00, 0x00, 0x00, 0x09, 0x02, 0x00, 0x00,
  0x42, 0xc4, 0xff, 0xff, 0x03, 0x00, 0x00, 0x00, 0x10, 0x00, 0x00, 0x00,
  0x04, 0x00, 0x00, 0x00, 0x01, 0x00, 0x00, 0x00, 0x4d, 0x01, 0x00, 0x00,
  0x01, 0x00, 0x00, 0x00, 0x08, 0x02, 0x00, 0x00, 0x7e, 0xc8, 0xff, 0xff,
  0x00, 0x00, 0x00, 0x0b, 0x18, 0x00, 0x00, 0x00, 0x0c, 0x00, 0x00, 0x00,
  0x04, 0x00, 0x00, 0x00, 0xc8, 0xfc, 0xfe, 0xff, 0x01, 0x00, 0x00, 0x00,
  0x33, 0x00, 0x00, 0x00, 0x02, 0x00, 0x00, 0x00, 0x0a, 0x02, 0x00, 0x00,
  0x86, 0x02, 0x00, 0x00, 0x8e, 0xc4, 0xff, 0xff, 0x07, 0x00, 0x00, 0x00,
  0x10, 0x00, 0x00, 0x00, 0x04, 0x00, 0x00, 0x00, 0x01, 0x00, 0x00, 0x00,
  0x86, 0x02, 0x00, 0x00, 0x01, 0x00, 0x00, 0x00, 0x95, 0x00, 0x00, 0x00,
  0x16, 0xc5, 0xff, 0xff, 0x00, 0x00, 0x00, 0x23, 0x06, 0x00, 0x00, 0x00,
  0x28, 0x00, 0x00, 0x00, 0x10, 0x00, 0x00, 0x00, 0x04, 0x00, 0x00, 0x00,
  0xce, 0xc5, 0xff, 0xff, 0x04, 0x00, 0x00, 0x00, 0x04, 0x00, 0x00, 0x00,
  0x08, 0x02, 0x00, 0x00, 0x09, 0x02, 0x00, 0x00, 0x0a, 0x02, 0x00, 0x00,
  0x0b, 0x02, 0x00, 0x00, 0x02, 0x00, 0x00, 0x00, 0x94, 0x00, 0x00, 0x00,
  0x57, 0x00, 0x00, 0x00, 0x56, 0xc5, 0xff, 0xff, 0x00, 0x00, 0x00, 0x08,
  0x02, 0x00, 0x00, 0x00, 0x18, 0x00, 0x00, 0x00, 0x0c, 0x00, 0x00, 0x00,
  0x04, 0x00, 0x00, 0x00, 0x58, 0xfd, 0xfe, 0xff, 0x01, 0x00, 0x00, 0x00,
  0x57, 0x00, 0x00, 0x00, 0x03, 0x00, 0x00, 0x00, 0xb5, 0x01, 0x00, 0x00,
  0x7f, 0x02, 0x00, 0x00, 0x6f, 0x02, 0x00, 0x00, 0x8a, 0xc5, 0xff, 0xff,
  0x00, 0x00, 0x00, 0x0a, 0x01, 0x00, 0x00, 0x00, 0x1c, 0x00, 0x00, 0x00,
  0x10, 0x00, 0x00, 0x00, 0x04, 0x00, 0x00, 0x00, 0x42, 0xc6, 0xff, 0xff,
  0x01, 0x00, 0x00, 0x00, 0x01, 0x00, 0x00, 0x00, 0xb5, 0x01, 0x00, 0x00,
  0x02, 0x00, 0x00, 0x00, 0x56, 0x02, 0x00, 0x00, 0xec, 0x00, 0x00, 0x00,
  0xbe, 0xc5, 0xff, 0xff, 0x00, 0x00, 0x00, 0x15, 0x04, 0x00, 0x00, 0x00,
  0x18, 0x00, 0x00, 0x00, 0x0c, 0x00, 0x00, 0x00, 0x04, 0x00, 0x00, 0x00,
  0xc0, 0xfd, 0xfe, 0xff, 0x01, 0x00, 0x00, 0x00, 0xec, 0x00, 0x00, 0x00,
  0x02, 0x00, 0x00, 0x00, 0x8f, 0x01, 0x00, 0x00, 0x4b, 0x01, 0x00, 0x00,
  0x86, 0xc5, 0xff, 0xff, 0x05, 0x00, 0x00, 0x00, 0x10, 0x00, 0x00, 0x00,
  0x04, 0x00, 0x00, 0x00, 0x01, 0x00, 0x00, 0x00, 0x8f, 0x01, 0x00, 0x00,
  0x01, 0x00, 0x00, 0x00, 0x31, 0x00, 0x00, 0x00, 0xc2, 0xc9, 0xff, 0xff,
  0x00, 0x00, 0x00, 0x0b, 0x18, 0x00, 0x00, 0x00, 0x0c, 0x00, 0x00, 0x00,
  0x04, 0x00, 0x00, 0x00, 0x0c, 0xfe, 0xfe, 0xff, 0x01, 0x00, 0x00, 0x00,
  0x31, 0x00, 0x00, 0x00, 0x02, 0x00, 0x00, 0x00, 0xea, 0x00, 0x00, 0x00,
  0xeb, 0x00, 0x00, 0x00, 0x3a, 0xc6, 0xff, 0xff, 0x00, 0x00, 0x00, 0x15,
  0x04, 0x00, 0x00, 0x00, 0x18, 0x00, 0x00, 0x00, 0x0c, 0x00, 0x00, 0x00,
  0x04, 0x00, 0x00, 0x00, 0x3c, 0xfe, 0xfe, 0xff, 0x01, 0x00, 0x00, 0x00,
  0xea, 0x00, 0x00, 0x00, 0x02, 0x00, 0x00, 0x00, 0x2f, 0x00, 0x00, 0x00,
  0x49, 0x01, 0x00, 0x00, 0x6a, 0xc6, 0xff, 0xff, 0x00, 0x00, 0x00, 0x15,
  0x04, 0x00, 0x00, 0x00, 0x18, 0x00, 0x00, 0x00, 0x0c, 0x00, 0x00, 0x00,
  0x04, 0x00, 0x00, 0x00, 0x6c, 0xfe, 0xfe, 0xff, 0x01, 0x00, 0x00, 0x00,
  0xeb, 0x00, 0x00, 0x00, 0x02, 0x00, 0x00, 0x00, 0x4a, 0x01, 0x00, 0x00,
  0x8e, 0x01, 0x00, 0x00, 0x32, 0xc6, 0xff, 0xff, 0x03, 0x00, 0x00, 0x00,
  0x10, 0x00, 0x00, 0x00, 0x04, 0x00, 0x00, 0x00, 0x01, 0x00, 0x00, 0x00,
  0x49, 0x01, 0x00, 0x00, 0x01, 0x00, 0x00, 0x00, 0x30, 0x00, 0x00, 0x00,
  0x52, 0xc6, 0xff, 0xff, 0x03, 0x00, 0x00, 0x00, 0x10, 0x00, 0x00, 0x00,
  0x04, 0x00, 0x00, 0x00, 0x01, 0x00, 0x00, 0x00, 0x4b, 0x01, 0x00, 0x00,
  0x01, 0x00, 0x00, 0x00, 0x07, 0x02, 0x00, 0x00, 0x72, 0xc6, 0xff, 0xff,
  0x05, 0x00, 0x00, 0x00, 0x10, 0x00, 0x00, 0x00, 0x04, 0x00, 0x00, 0x00,
  0x01, 0x00, 0x00, 0x00, 0x8e, 0x01, 0x00, 0x00, 0x01, 0x00, 0x00, 0x00,
  0x05, 0x02, 0x00, 0x00, 0x92, 0xc6, 0xff, 0xff, 0x03, 0x00, 0x00, 0x00,
  0x10, 0x00, 0x00, 0x00, 0x04, 0x00, 0x00, 0x00, 0x01, 0x00, 0x00, 0x00,
  0x4a, 0x01, 0x00, 0x00, 0x01, 0x00, 0x00, 0x00, 0x04, 0x02, 0x00, 0x00,
  0xce, 0xca, 0xff, 0xff, 0x00, 0x00, 0x00, 0x0b, 0x18, 0x00, 0x00, 0x00,
  0x0c, 0x00, 0x00, 0x00, 0x04, 0x00, 0x00, 0x00, 0x18, 0xff, 0xfe, 0xff,
  0x01, 0x00, 0x00, 0x00, 0x30, 0x00, 0x00, 0x00, 0x02, 0x00, 0x00, 0x00,
  0x06, 0x02, 0x00, 0x00, 0x69, 0x02, 0x00, 0x00, 0xde, 0xc6, 0xff, 0xff,
  0x07, 0x00, 0x00, 0x00, 0x10, 0x00, 0x00, 0x00, 0x04, 0x00, 0x00, 0x00,
  0x01, 0x00, 0x00, 0x00, 0x69, 0x02, 0x00, 0x00, 0x01, 0x00, 0x00, 0x00,
  0x93, 0x00, 0x00, 0x00, 0x66, 0xc7, 0xff, 0xff, 0x00, 0x00, 0x00, 0x23,
  0x06, 0x00, 0x00, 0x00, 0x28, 0x00, 0x00, 0x00, 0x10, 0x00, 0x00, 0x00,
  0x04, 0x00, 0x00, 0x00, 0x1e, 0xc8, 0xff, 0xff, 0x04, 0x00, 0x00, 0x00,
  0x04, 0x00, 0x00, 0x00, 0x04, 0x02, 0x00, 0x00, 0x05, 0x02, 0x00, 0x00,
  0x06, 0x02, 0x00, 0x00, 0x07, 0x02, 0x00, 0x00, 0x02, 0x00, 0x00, 0x00,
  0x92, 0x00, 0x00, 0x00, 0x56, 0x00, 0x00, 0x00, 0xa6, 0xc7, 0xff, 0xff,
  0x00, 0x00, 0x00, 0x08, 0x02, 0x00, 0x00, 0x00, 0x18, 0x00, 0x00, 0x00,
  0x0c, 0x00, 0x00, 0x00, 0x04, 0x00, 0x00, 0x00, 0xa8, 0xff, 0xfe, 0xff,
  0x01, 0x00, 0x00, 0x00, 0x56, 0x00, 0x00, 0x00, 0x03, 0x00, 0x00, 0x00,
  0xb4, 0x01, 0x00, 0x00, 0x7f, 0x02, 0x00, 0x00, 0x6f, 0x02, 0x00, 0x00,
  0xda, 0xc7, 0xff, 0xff, 0x00, 0x00, 0x00, 0x0a, 0x01, 0x00, 0x00, 0x00,
  0x1c, 0x00, 0x00, 0x00, 0x10, 0x00, 0x00, 0x00, 0x04, 0x00, 0x00, 0x00,
  0x92, 0xc8, 0xff, 0xff, 0x01, 0x00, 0x00, 0x00, 0x01, 0x00, 0x00, 0x00,
  0xb4, 0x01, 0x00, 0x00, 0x02, 0x00, 0x00, 0x00, 0x55, 0x02, 0x00, 0x00,
  0xe9, 0x00, 0x00, 0x00, 0x0e, 0xc8, 0xff, 0xff, 0x00, 0x00, 0x00, 0x15,
  0x04, 0x00, 0x00, 0x00, 0x18, 0x00, 0x00, 0x00, 0x0c, 0x00, 0x00, 0x00,
  0x04, 0x00, 0x00, 0x00, 0x10, 0x00, 0xff, 0xff, 0x01, 0x00, 0x00, 0x00,
  0xe9, 0x00, 0x00, 0x00, 0x02, 0x00, 0x00, 0x00, 0x8d, 0x01, 0x00, 0x00,
  0x48, 0x01, 0x00, 0x00, 0xd6, 0xc7, 0xff, 0xff, 0x05, 0x00, 0x00, 0x00,
  0x10, 0x00, 0x00, 0x00, 0x04, 0x00, 0x00, 0x00, 0x01, 0x00, 0x00, 0x00,
  0x8d, 0x01, 0x00, 0x00, 0x01, 0x00, 0x00, 0x00, 0x2f, 0x00, 0x00, 0x00,
  0x12, 0xcc, 0xff, 0xff, 0x00, 0x00, 0x00, 0x0b, 0x18, 0x00, 0x00, 0x00,
  0x0c, 0x00, 0x00, 0x00, 0x04, 0x00, 0x00, 0x00, 0x5c, 0x00, 0xff, 0xff,
  0x01, 0x00, 0x00, 0x00, 0x2f, 0x00, 0x00, 0x00, 0x02, 0x00, 0x00, 0x00,
  0xe6, 0x00, 0x00, 0x00, 0xe8, 0x00, 0x00, 0x00, 0x8a, 0xc8, 0xff, 0xff,
  0x00, 0x00, 0x00, 0x15, 0x04, 0x00, 0x00, 0x00, 0x18, 0x00, 0x00, 0x00,
  0x0c, 0x00, 0x00, 0x00, 0x04, 0x00, 0x00, 0x00, 0x8c, 0x00, 0xff, 0xff,
  0x01, 0x00, 0x00, 0x00, 0xe6, 0x00, 0x00, 0x00, 0x02, 0x00, 0x00, 0x00,
  0x2d, 0x00, 0x00, 0x00, 0x45, 0x01, 0x00, 0x00, 0xba, 0xc8, 0xff, 0xff,
  0x00, 0x00, 0x00, 0x15, 0x04, 0x00, 0x00, 0x00, 0x18, 0x00, 0x00, 0x00,
  0x0c, 0x00, 0x00, 0x00, 0x04, 0x00, 0x00, 0x00, 0xbc, 0x00, 0xff, 0xff,
  0x01, 0x00, 0x00, 0x00, 0xe8, 0x00, 0x00, 0x00, 0x02, 0x00, 0x00, 0x00,
  0x47, 0x01, 0x00, 0x00, 0x8c, 0x01, 0x00, 0x00, 0x82, 0xc8, 0xff, 0xff,
  0x03, 0x00, 0x00, 0x00, 0x10, 0x00, 0x00, 0x00, 0x04, 0x00, 0x00, 0x00,
  0x01, 0x00, 0x00, 0x00, 0x45, 0x01, 0x00, 0x00, 0x01, 0x00, 0x00, 0x00,
  0x2e, 0x00, 0x00, 0x00, 0xa2, 0xc8, 0xff, 0xff, 0x03, 0x00, 0x00, 0x00,
  0x10, 0x00, 0x00, 0x00, 0x04, 0x00, 0x00, 0x00, 0x01, 0x00, 0x00, 0x00,
  0x48, 0x01, 0x00, 0x00, 0x01, 0x00, 0x00, 0x00, 0x03, 0x02, 0x00, 0x00,
  0xc2, 0xc8, 0xff, 0xff, 0x05, 0x00, 0x00, 0x00, 0x10, 0x00, 0x00, 0x00,
  0x04, 0x00, 0x00, 0x00, 0x01, 0x00, 0x00, 0x00, 0x8c, 0x01, 0x00, 0x00,
  0x01, 0x00, 0x00, 0x00, 0x01, 0x02, 0x00, 0x00, 0xe2, 0xc8, 0xff, 0xff,
  0x03, 0x00, 0x00, 0x00, 0x10, 0x00, 0x00, 0x00, 0x04, 0x00, 0x00, 0x00,
  0x01, 0x00, 0x00, 0x00, 0x47, 0x01, 0x00, 0x00, 0x01, 0x00, 0x00, 0x00,
  0x00, 0x02, 0x00, 0x00, 0x1e, 0xcd, 0xff, 0xff, 0x00, 0x00, 0x00, 0x0b,
  0x18, 0x00, 0x00, 0x00, 0x0c, 0x00, 0x00, 0x00, 0x04, 0x00, 0x00, 0x00,
  0x68, 0x01, 0xff, 0xff, 0x01, 0x00, 0x00, 0x00, 0x2e, 0x00, 0x00, 0x00,
  0x02, 0x00, 0x00, 0x00, 0x02, 0x02, 0x00, 0x00, 0x6d, 0x02, 0x00, 0x00,
  0x2e, 0xc9, 0xff, 0xff, 0x07, 0x00, 0x00, 0x00, 0x10, 0x00, 0x00, 0x00,
  0x04, 0x00, 0x00, 0x00, 0x01, 0x00, 0x00, 0x00, 0x6d, 0x02, 0x00, 0x00,
  0x01, 0x00, 0x00, 0x00, 0x91, 0x00, 0x00, 0x00, 0xb6, 0xc9, 0xff, 0xff,
  0x00, 0x00, 0x00, 0x23, 0x06, 0x00, 0x00, 0x00, 0x28, 0x00, 0x00, 0x00,
  0x10, 0x00, 0x00, 0x00, 0x04, 0x00, 0x00, 0x00, 0x6e, 0xca, 0xff, 0xff,
  0x04, 0x00, 0x00, 0x00, 0x04, 0x00, 0x00, 0x00, 0x00, 0x02, 0x00, 0x00,
  0x01, 0x02, 0x00, 0x00, 0x02, 0x02, 0x00, 0x00, 0x03, 0x02, 0x00, 0x00,
  0x02, 0x00, 0x00, 0x00, 0x90, 0x00, 0x00, 0x00, 0x55, 0x00, 0x00, 0x00,
  0xf6, 0xc9, 0xff, 0xff, 0x00, 0x00, 0x00, 0x08, 0x02, 0x00, 0x00, 0x00,
  0x18, 0x00, 0x00, 0x00, 0x0c, 0x00, 0x00, 0x00, 0x04, 0x00, 0x00, 0x00,
  0xf8, 0x01, 0xff, 0xff, 0x01, 0x00, 0x00, 0x00, 0x55, 0x00, 0x00, 0x00,
  0x03, 0x00, 0x00, 0x00, 0xb3, 0x01, 0x00, 0x00, 0x7f, 0x02, 0x00, 0x00,
  0x6f, 0x02, 0x00, 0x00, 0x2a, 0xca, 0xff, 0xff, 0x00, 0x00, 0x00, 0x0a,
  0x01, 0x00, 0x00, 0x00, 0x1c, 0x00, 0x00, 0x00, 0x10, 0x00, 0x00, 0x00,
  0x04, 0x00, 0x00, 0x00, 0xe2, 0xca, 0xff, 0xff, 0x01, 0x00, 0x00, 0x00,
  0x01, 0x00, 0x00, 0x00, 0xb3, 0x01, 0x00, 0x00, 0x02, 0x00, 0x00, 0x00,
  0x54, 0x02, 0x00, 0x00, 0xe5, 0x00, 0x00, 0x00, 0x5e, 0xca, 0xff, 0xff,
  0x00, 0x00, 0x00, 0x15, 0x04, 0x00, 0x00, 0x00, 0x18, 0x00, 0x00, 0x00,
  0x0c, 0x00, 0x00, 0x00, 0x04, 0x00, 0x00, 0x00, 0x60, 0x02, 0xff, 0xff,
  0x01, 0x00, 0x00, 0x00, 0xe5, 0x00, 0x00, 0x00, 0x02, 0x00, 0x00, 0x00,
  0x8b, 0x01, 0x00, 0x00, 0x44, 0x01, 0x00, 0x00, 0x26, 0xca, 0xff, 0xff,
  0x05, 0x00, 0x00, 0x00, 0x10, 0x00, 0x00, 0x00, 0x04, 0x00, 0x00, 0x00,
  0x01, 0x00, 0x00, 0x00, 0x8b, 0x01, 0x00, 0x00, 0x01, 0x00, 0x00, 0x00,
  0x2d, 0x00, 0x00, 0x00, 0x62, 0xce, 0xff, 0xff, 0x00, 0x00, 0x00, 0x0b,
  0x18, 0x00, 0x00, 0x00, 0x0c, 0x00, 0x00, 0x00, 0x04, 0x00, 0x00, 0x00,
  0xac, 0x02, 0xff, 0xff, 0x01, 0x00, 0x00, 0x00, 0x2d, 0x00, 0x00, 0x00,
  0x02, 0x00, 0x00, 0x00, 0xe3, 0x00, 0x00, 0x00, 0xe4, 0x00, 0x00, 0x00,
  0xda, 0xca, 0xff, 0xff, 0x00, 0x00, 0x00, 0x15, 0x04, 0x00, 0x00, 0x00,
  0x18, 0x00, 0x00, 0x00, 0x0c, 0x00, 0x00, 0x00, 0x04, 0x00, 0x00, 0x00,
  0xdc, 0x02, 0xff, 0xff, 0x01, 0x00, 0x00, 0x00, 0xe3, 0x00, 0x00, 0x00,
  0x02, 0x00, 0x00, 0x00, 0x2b, 0x00, 0x00, 0x00, 0x42, 0x01, 0x00, 0x00,
  0x0a, 0xcb, 0xff, 0xff, 0x00, 0x00, 0x00, 0x15, 0x04, 0x00, 0x00, 0x00,
  0x18, 0x00, 0x00, 0x00, 0x0c, 0x00, 0x00, 0x00, 0x04, 0x00, 0x00, 0x00,
  0x0c, 0x03, 0xff, 0xff, 0x01, 0x00, 0x00, 0x00, 0xe4, 0x00, 0x00, 0x00,
  0x02, 0x00, 0x00, 0x00, 0x43, 0x01, 0x00, 0x00, 0x8a, 0x01, 0x00, 0x00,
  0xd2, 0xca, 0xff, 0xff, 0x03, 0x00, 0x00, 0x00, 0x10, 0x00, 0x00, 0x00,
  0x04, 0x00, 0x00, 0x00, 0x01, 0x00, 0x00, 0x00, 0x42, 0x01, 0x00, 0x00,
  0x01, 0x00, 0x00, 0x00, 0x2c, 0x00, 0x00, 0x00, 0xf2, 0xca, 0xff, 0xff,
  0x03, 0x00, 0x00, 0x00, 0x10, 0x00, 0x00, 0x00, 0x04, 0x00, 0x00, 0x00,
  0x01, 0x00, 0x00, 0x00, 0x44, 0x01, 0x00, 0x00, 0x01, 0x00, 0x00, 0x00,
  0xff, 0x01, 0x00, 0x00, 0x12, 0xcb, 0xff, 0xff, 0x05, 0x00, 0x00, 0x00,
  0x10, 0x00, 0x00, 0x00, 0x04, 0x00, 0x00, 0x00, 0x01, 0x00, 0x00, 0x00,
  0x8a, 0x01, 0x00, 0x00, 0x01, 0x00, 0x00, 0x00, 0xfd, 0x01, 0x00, 0x00,
  0x32, 0xcb, 0xff, 0xff, 0x03, 0x00, 0x00, 0x00, 0x10, 0x00, 0x00, 0x00,
  0x04, 0x00, 0x00, 0x00, 0x01, 0x00, 0x00, 0x00, 0x43, 0x01, 0x00, 0x00,
  0x01, 0x00, 0x00, 0x00, 0xfc, 0x01, 0x00, 0x00, 0x6e, 0xcf, 0xff, 0xff,
  0x00, 0x00, 0x00, 0x0b, 0x18, 0x00, 0x00, 0x00, 0x0c, 0x00, 0x00, 0x00,
  0x04, 0x00, 0x00, 0x00, 0xb8, 0x03, 0xff, 0xff, 0x01, 0x00, 0x00, 0x00,
  0x2c, 0x00, 0x00, 0x00, 0x02, 0x00, 0x00, 0x00, 0xfe, 0x01, 0x00, 0x00,
  0x74, 0x02, 0x00, 0x00, 0x7e, 0xcb, 0xff, 0xff, 0x07, 0x00, 0x00, 0x00,
  0x10, 0x00, 0x00, 0x00, 0x04, 0x00, 0x00, 0x00, 0x01, 0x00, 0x00, 0x00,
  0x74, 0x02, 0x00, 0x00, 0x01, 0x00, 0x00, 0x00, 0x8f, 0x00, 0x00, 0x00,
  0x06, 0xcc, 0xff, 0xff, 0x00, 0x00, 0x00, 0x23, 0x06, 0x00, 0x00, 0x00,
  0x28, 0x00, 0x00, 0x00, 0x10, 0x00, 0x00, 0x00, 0x04, 0x00, 0x00, 0x00,
  0xbe, 0xcc, 0xff, 0xff, 0x04, 0x00, 0x00, 0x00, 0x04, 0x00, 0x00, 0x00,
  0xfc, 0x01, 0x00, 0x00, 0xfd, 0x01, 0x00, 0x00, 0xfe, 0x01, 0x00, 0x00,
  0xff, 0x01, 0x00, 0x00, 0x02, 0x00, 0x00, 0x00, 0x8e, 0x00, 0x00, 0x00,
  0x54, 0x00, 0x00, 0x00, 0x46, 0xcc, 0xff, 0xff, 0x00, 0x00, 0x00, 0x08,
  0x02, 0x00, 0x00, 0x00, 0x18, 0x00, 0x00, 0x00, 0x0c, 0x00, 0x00, 0x00,
  0x04, 0x00, 0x00, 0x00, 0x48, 0x04, 0xff, 0xff, 0x01, 0x00, 0x00, 0x00,
  0x54, 0x00, 0x00, 0x00, 0x03, 0x00, 0x00, 0x00, 0xb2, 0x01, 0x00, 0x00,
  0x7f, 0x02, 0x00, 0x00, 0x6f, 0x02, 0x00, 0x00, 0x7a, 0xcc, 0xff, 0xff,
  0x00, 0x00, 0x00, 0x0a, 0x01, 0x00, 0x00, 0x00, 0x1c, 0x00, 0x00, 0x00,
  0x10, 0x00, 0x00, 0x00, 0x04, 0x00, 0x00, 0x00, 0x32, 0xcd, 0xff, 0xff,
  0x01, 0x00, 0x00, 0x00, 0x01, 0x00, 0x00, 0x00, 0xb2, 0x01, 0x00, 0x00,
  0x02, 0x00, 0x00, 0x00, 0x53, 0x02, 0x00, 0x00, 0xe2, 0x00, 0x00, 0x00,
  0xae, 0xcc, 0xff, 0xff, 0x00, 0x00, 0x00, 0x15, 0x04, 0x00, 0x00, 0x00,
  0x18, 0x00, 0x00, 0x00, 0x0c, 0x00, 0x00, 0x00, 0x04, 0x00, 0x00, 0x00,
  0xb0, 0x04, 0xff, 0xff, 0x01, 0x00, 0x00, 0x00, 0xe2, 0x00, 0x00, 0x00,
  0x02, 0x00, 0x00, 0x00, 0x89, 0x01, 0x00, 0x00, 0x41, 0x01, 0x00, 0x00,
  0x76, 0xcc, 0xff, 0xff, 0x05, 0x00, 0x00, 0x00, 0x10, 0x00, 0x00, 0x00,
  0x04, 0x00, 0x00, 0x00, 0x01, 0x00, 0x00, 0x00, 0x89, 0x01, 0x00, 0x00,
  0x01, 0x00, 0x00, 0x00, 0x2b, 0x00, 0x00, 0x00, 0xb2, 0xd0, 0xff, 0xff,
  0x00, 0x00, 0x00, 0x0b, 0x18, 0x00, 0x00, 0x00, 0x0c, 0x00, 0x00, 0x00,
  0x04, 0x00, 0x00, 0x00, 0xfc, 0x04, 0xff, 0xff, 0x01, 0x00, 0x00, 0x00,
  0x2b, 0x00, 0x00, 0x00, 0x02, 0x00, 0x00, 0x00, 0xe0, 0x00, 0x00, 0x00,
  0xe1, 0x00, 0x00, 0x00, 0x2a, 0xcd, 0xff, 0xff, 0x00, 0x00, 0x00, 0x15,
  0x04, 0x00, 0x00, 0x00, 0x18, 0x00, 0x00, 0x00, 0x0c, 0x00, 0x00, 0x00,
  0x04, 0x00, 0x00, 0x00, 0x2c, 0x05, 0xff, 0xff, 0x01, 0x00, 0x00, 0x00,
  0xe0, 0x00, 0x00, 0x00, 0x02, 0x00, 0x00, 0x00, 0x29, 0x00, 0x00, 0x00,
  0x3f, 0x01, 0x00, 0x00, 0x5a, 0xcd, 0xff, 0xff, 0x00, 0x00, 0x00, 0x15,
  0x04, 0x00, 0x00, 0x00, 0x18, 0x00, 0x00, 0x00, 0x0c, 0x00, 0x00, 0x00,
  0x04, 0x00, 0x00, 0x00, 0x5c, 0x05, 0xff, 0xff, 0x01, 0x00, 0x00, 0x00,
  0xe1, 0x00, 0x00, 0x00, 0x02, 0x00, 0x00, 0x00, 0x40, 0x01, 0x00, 0x00,
  0x88, 0x01, 0x00, 0x00, 0x22, 0xcd, 0xff, 0xff, 0x03, 0x00, 0x00, 0x00,
  0x10, 0x00, 0x00, 0x00, 0x04, 0x00, 0x00, 0x00, 0x01, 0x00, 0x00, 0x00,
  0x3f, 0x01, 0x00, 0x00, 0x01, 0x00, 0x00, 0x00, 0x2a, 0x00, 0x00, 0x00,
  0x42, 0xcd, 0xff, 0xff, 0x03, 0x00, 0x00, 0x00, 0x10, 0x00, 0x00, 0x00,
  0x04, 0x00, 0x00, 0x00, 0x01, 0x00, 0x00, 0x00, 0x41, 0x01, 0x00, 0x00,
  0x01, 0x00, 0x00, 0x00, 0xfb, 0x01, 0x00, 0x00, 0x62, 0xcd, 0xff, 0xff,
  0x05, 0x00, 0x00, 0x00, 0x10, 0x00, 0x00, 0x00, 0x04, 0x00, 0x00, 0x00,
  0x01, 0x00, 0x00, 0x00, 0x88, 0x01, 0x00, 0x00, 0x01, 0x00, 0x00, 0x00,
  0xf9, 0x01, 0x00, 0x00, 0x82, 0xcd, 0xff, 0xff, 0x03, 0x00, 0x00, 0x00,
  0x10, 0x00, 0x00, 0x00, 0x04, 0x00, 0x00, 0x00, 0x01, 0x00, 0x00, 0x00,
  0x40, 0x01, 0x00, 0x00, 0x01, 0x00, 0x00, 0x00, 0xf8, 0x01, 0x00, 0x00,
  0xbe, 0xd1, 0xff, 0xff, 0x00, 0x00, 0x00, 0x0b, 0x18, 0x00, 0x00, 0x00,
  0x0c, 0x00, 0x00, 0x00, 0x04, 0x00, 0x00, 0x00, 0x08, 0x06, 0xff, 0xff,
  0x01, 0x00, 0x00, 0x00, 0x2a, 0x00, 0x00, 0x00, 0x02, 0x00, 0x00, 0x00,
  0xfa, 0x01, 0x00, 0x00, 0x78, 0x02, 0x00, 0x00, 0xce, 0xcd, 0xff, 0xff,
  0x07, 0x00, 0x00, 0x00, 0x10, 0x00, 0x00, 0x00, 0x04, 0x00, 0x00, 0x00,
  0x01, 0x00, 0x00, 0x00, 0x78, 0x02, 0x00, 0x00, 0x01, 0x00, 0x00, 0x00,
  0x8d, 0x00, 0x00, 0x00, 0x56, 0xce, 0xff, 0xff, 0x00, 0x00, 0x00, 0x23,
  0x06, 0x00, 0x00, 0x00, 0x28, 0x00, 0x00, 0x00, 0x10, 0x00, 0x00, 0x00,
  0x04, 0x00, 0x00, 0x00, 0x0e, 0xcf, 0xff, 0xff, 0x04, 0x00, 0x00, 0x00,
  0x04, 0x00, 0x00, 0x00, 0xf8, 0x01, 0x00, 0x00, 0xf9, 0x01, 0x00, 0x00,
  0xfa, 0x01, 0x00, 0x00, 0xfb, 0x01, 0x00, 0x00, 0x02, 0x00, 0x00, 0x00,
  0x8c, 0x00, 0x00, 0x00, 0x53, 0x00, 0x00, 0x00, 0x96, 0xce, 0xff, 0xff,
  0x00, 0x00, 0x00, 0x08, 0x02, 0x00, 0x00, 0x00, 0x18, 0x00, 0x00, 0x00,
  0x0c, 0x00, 0x00, 0x00, 0x04, 0x00, 0x00, 0x00, 0x98, 0x06, 0xff, 0xff,
  0x01, 0x00, 0x00, 0x00, 0x53, 0x00, 0x00, 0x00, 0x03, 0x00, 0x00, 0x00,
  0xb1, 0x01, 0x00, 0x00, 0x7f, 0x02, 0x00, 0x00, 0x6f, 0x02, 0x00, 0x00,
  0xca, 0xce, 0xff, 0xff, 0x00, 0x00, 0x00, 0x0a, 0x01, 0x00, 0x00, 0x00,
  0x1c, 0x00, 0x00, 0x00, 0x10, 0x00, 0x00, 0x00, 0x04, 0x00, 0x00, 0x00,
  0x82, 0xcf, 0xff, 0xff, 0x01, 0x00, 0x00, 0x00, 0x01, 0x00, 0x00, 0x00,
  0xb1, 0x01, 0x00, 0x00, 0x02, 0x00, 0x00, 0x00, 0x52, 0x02, 0x00, 0x00,
  0xdf, 0x00, 0x00, 0x00, 0xfe, 0xce, 0xff, 0xff, 0x00, 0x00, 0x00, 0x15,
  0x04, 0x00, 0x00, 0x00, 0x18, 0x00, 0x00, 0x00, 0x0c, 0x00, 0x00, 0x00,
  0x04, 0x00, 0x00, 0x00, 0x00, 0x07, 0xff, 0xff, 0x01, 0x00, 0x00, 0x00,
  0xdf, 0x00, 0x00, 0x00, 0x02, 0x00, 0x00, 0x00, 0x87, 0x01, 0x00, 0x00,
  0x3e, 0x01, 0x00, 0x00, 0xc6, 0xce, 0xff, 0xff, 0x05, 0x00, 0x00, 0x00,
  0x10, 0x00, 0x00, 0x00, 0x04, 0x00, 0x00, 0x00, 0x01, 0x00, 0x00, 0x00,
  0x87, 0x01, 0x00, 0x00, 0x01, 0x00, 0x00, 0x00, 0x29, 0x00, 0x00, 0x00,
  0x02, 0xd3, 0xff, 0xff, 0x00, 0x00, 0x00, 0x0b, 0x18, 0x00, 0x00, 0x00,
  0x0c, 0x00, 0x00, 0x00, 0x04, 0x00, 0x00, 0x00, 0x4c, 0x07, 0xff, 0xff,
  0x01, 0x00, 0x00, 0x00, 0x29, 0x00, 0x00, 0x00, 0x02, 0x00, 0x00, 0x00,
  0xdd, 0x00, 0x00, 0x00, 0xde, 0x00, 0x00, 0x00, 0x7a, 0xcf, 0xff, 0xff,
  0x00, 0x00, 0x00, 0x15, 0x04, 0x00, 0x00, 0x00, 0x18, 0x00, 0x00, 0x00,
  0x0c, 0x00, 0x00, 0x00, 0x04, 0x00, 0x00, 0x00, 0x7c, 0x07, 0xff, 0xff,
  0x01, 0x00, 0x00, 0x00, 0xdd, 0x00, 0x00, 0x00, 0x02, 0x00, 0x00, 0x00,
  0x26, 0x00, 0x00, 0x00, 0x3c, 0x01, 0x00, 0x00, 0xaa, 0xcf, 0xff, 0xff,
  0x00, 0x00, 0x00, 0x15, 0x04, 0x00, 0x00, 0x00, 0x18, 0x00, 0x00, 0x00,
  0x0c, 0x00, 0x00, 0x00, 0x04, 0x00, 0x00, 0x00, 0xac, 0x07, 0xff, 0xff,
  0x01, 0x00, 0x00, 0x00, 0xde, 0x00, 0x00, 0x00, 0x02, 0x00, 0x00, 0x00,
  0x3d, 0x01, 0x00, 0x00, 0x86, 0x01, 0x00, 0x00, 0x72, 0xcf, 0xff, 0xff,
  0x03, 0x00, 0x00, 0x00, 0x10, 0x00, 0x00, 0x00, 0x04, 0x00, 0x00, 0x00,
  0x01, 0x00, 0x00, 0x00, 0x3c, 0x01, 0x00, 0x00, 0x01, 0x00, 0x00, 0x00,
  0x28, 0x00, 0x00, 0x00, 0x92, 0xcf, 0xff, 0xff, 0x03, 0x00, 0x00, 0x00,
  0x10, 0x00, 0x00, 0x00, 0x04, 0x00, 0x00, 0x00, 0x01, 0x00, 0x00, 0x00,
  0x3e, 0x01, 0x00, 0x00, 0x01, 0x00, 0x00, 0x00, 0xf7, 0x01, 0x00, 0x00,
  0xb2, 0xcf, 0xff, 0xff, 0x05, 0x00, 0x00, 0x00, 0x10, 0x00, 0x00, 0x00,
  0x04, 0x00, 0x00, 0x00, 0x01, 0x00, 0x00, 0x00, 0x86, 0x01, 0x00, 0x00,
  0x01, 0x00, 0x00, 0x00, 0xf5, 0x01, 0x00, 0x00, 0xd2, 0xcf, 0xff, 0xff,
  0x03, 0x00, 0x00, 0x00, 0x10, 0x00, 0x00, 0x00, 0x04, 0x00, 0x00, 0x00,
  0x01, 0x00, 0x00, 0x00, 0x3d, 0x01, 0x00, 0x00, 0x01, 0x00, 0x00, 0x00,
  0xf4, 0x01, 0x00, 0x00, 0x0e, 0xd4, 0xff, 0xff, 0x00, 0x00, 0x00, 0x0b,
  0x18, 0x00, 0x00, 0x00, 0x0c, 0x00, 0x00, 0x00, 0x04, 0x00, 0x00, 0x00,
  0x58, 0x08, 0xff, 0xff, 0x01, 0x00, 0x00, 0x00, 0x28, 0x00, 0x00, 0x00,
  0x02, 0x00, 0x00, 0x00, 0xf6, 0x01, 0x00, 0x00, 0x7b, 0x02, 0x00, 0x00,
  0x1e, 0xd0, 0xff, 0xff, 0x07, 0x00, 0x00, 0x00, 0x10, 0x00, 0x00, 0x00,
  0x04, 0x00, 0x00, 0x00, 0x01, 0x00, 0x00, 0x00, 0x7b, 0x02, 0x00, 0x00,
  0x01, 0x00, 0x00, 0x00, 0x8b, 0x00, 0x00, 0x00, 0xa6, 0xd0, 0xff, 0xff,
  0x00, 0x00, 0x00, 0x23, 0x06, 0x00, 0x00, 0x00, 0x28, 0x00, 0x00, 0x00,
  0x10, 0x00, 0x00, 0x00, 0x04, 0x00, 0x00, 0x00, 0x5e, 0xd1, 0xff, 0xff,
  0x04, 0x00, 0x00, 0x00, 0x04, 0x00, 0x00, 0x00, 0xf4, 0x01, 0x00, 0x00,
  0xf5, 0x01, 0x00, 0x00, 0xf6, 0x01, 0x00, 0x00, 0xf7, 0x01, 0x00, 0x00,
  0x02, 0x00, 0x00, 0x00, 0x8a, 0x00, 0x00, 0x00, 0x52, 0x00, 0x00, 0x00,
  0xe6, 0xd0, 0xff, 0xff, 0x00, 0x00, 0x00, 0x08, 0x02, 0x00, 0x00, 0x00,
